. 10282
, 9577
the 7229
and 4765
to 4454
of 3722
a 3624
I 3284
that 3192
you 2840
it 2773
is 2567
we 2527
in 2515
&apos;s 2165
this 1959
so 1700
&quot; 1118
for 1087
have 1076
? 1075
they 1036
was 964
are 962
what 927
&apos;t 915
can 915
but 907
on 906
with 804
be 795
my 744
all 717
&apos;re 714
do 706
if 702
@-@ 699
not 674
one 665
as 656
about 647
at 638
there 608
just 607
or 567
like 562
people 550
me 540
-- 538
) 515
when 512
now 512
( 508
an 497
by 488
here 479
from 477
know 465
because 462
our 444
going 440
these 434
more 429
! 429
he 409
out 399
then 396
them 395
get 393
let 389
their 373
up 369
see 367
will 365
would 364
how 359
think 358
right 350
your 346
don 335
&apos;m 335
very 329
: 327
time 324
had 323
who 318
actually 318
were 313
way 304
into 302
really 295
us 293
could 292
go 282
&apos;ve 281
other 280
well 273
say 271
want 266
some 260
no 259
years 257
two 255
which 254
make 253
has 252
over 249
world 248
things 243
even 243
&apos;ll 241
Laughter 240
first 219
something 219
where 216
look 214
only 212
3 211
take 209
thing 209
said 208
than 204
also 201
back 197
she 197
same 193
why 193
been 190
many 187
little 185
did 180
life 179
much 178
those 177
Applause 171
use 171
need 167
most 161
&apos; 158
different 157
change 155
her 149
work 148
three 147
year 146
1 144
every 144
down 143
good 143
new 140
should 140
got 139
... 138
4 138
around 137
another 136
come 135
equal 134
lot 132
his 131
any 130
day 130
through 129
plus 129
energy 129
each 128
love 128
&apos;d 126
2 126
- 126
start 122
five 122
doing 119
x 118
put 117
thank 117
food 116
tell 115
kind 115
; 115
minus 115
times 114
women 114
called 113
great 113
find 113
still 112
number 112
example 111
made 111
percent 110
play 110
never 109
problem 109
own 108
brain 108
next 107
didn 107
started 107
after 106
being 105
bit 104
maybe 104
last 103
doesn 102
went 100
million 100
him 99
before 98
today 97
give 96
able 96
again 95
might 95
always 95
fact 94
re@@ 94
better 93
/ 93
story 93
does 92
important 91
thought 90
big 90
show 90
kids 89
oil 88
came 86
mean 86
its 85
part 84
using 84
idea 84
try 83
off 83
less 83
10 82
place 82
used 82
long 81
children 81
&#91; 81
whole 80
four 80
probably 79
&#93; 79
wanted 78
course 78
point 78
second 78
too 78
found 77
project 77
self 76
learn 76
data 75
okay 74
information 74
end 74
system 72
ago 71
words 71
almost 70
am 70
Oh 70
together 70
old 70
video 70
between 69
wrong 68
water 68
enough 68
high 67
trying 67
numbers 67
left 67
may 67
language 67
without 66
everything 66
keep 66
talk 66
person 66
few 66
live 66
$ 66
goes 65
school 65
side 64
ever 64
believe 64
space 64
human 64
means 64
become 64
both 64
S@@ 63
understand 63
looking 63
question 63
working 62
state 62
call 62
told 62
square 62
once 61
pretty 61
Chinese 61
help 60
line 60
government 60
memory 60
stop 59
write 59
done 59
such 58
9 58
20 58
negative 58
happen 57
far 57
create 57
six 57
book 56
away 56
in@@ 56
sometimes 56
squared 56
while 56
social 56
light 56
business 56
silk 56
y 55
case 55
future 55
took 55
imagine 55
already 55
money 55
China 55
hope 54
sense 54
bad 54
seen 53
hand 53
guys 53
talking 53
real 53
small 53
equation 53
30 53
name 53
man 53
land 53
God 53
anything 52
0 52
b 52
form 52
young 52
works 52
carbon 52
heard 51
un@@ 51
comes 51
n 51
feel 51
A 51
% 51
ing 50
hard 50
body 50
least 50
possible 49
themselves 49
best 49
simple 49
happens 49
won 49
thinking 49
saw 49
since 49
interesting 49
happened 48
de@@ 48
yeah 48
isn 48
set 48
making 48
Earth 48
decided 48
makes 48
English 48
6 47
couple 47
sure 47
half 47
nothing 47
es 47
country 47
became 47
technology 47
lives 46
word 46
later 46
matter 46
ask 46
home 46
s@@ 46
dollars 46
America 46
b@@ 45
move 45
draw 45
whether 45
answer 45
true 45
TED 45
men 45
getting 44
night 44
somebody 44
reason 44
past 44
nature 44
ate 44
5 44
remember 43
per 43
7 43
city 43
step 43
stories 43
instead 43
building 43
yet 43
Internet 43
says 43
p@@ 42
finally 42
a@@ 42
H@@ 42
share 42
ed 42
low 42
picture 42
box 42
everybody 42
o 42
friends 42
guy 41
ones 41
d@@ 41
having 41
figure 41
D@@ 41
child 41
y@@ 41
asked 41
eat 41
8 41
living 40
days 40
looks 40
care 40
build 40
50 40
single 40
group 40
stuff 40
everyone 40
job 40
temperature 40
months 40
e@@ 40
saying 40
coming 39
moment 39
basically 39
global 39
green 39
A@@ 39
must 39
built 39
knew 39
billion 39
al 39
art 39
car 38
experience 38
until 38
health 38
though 38
ideas 38
growth 38
quite 38
completely 38
hundred 38
spider 38
sort 37
B@@ 37
mind 37
add 37
others 37
er 37
large 37
P@@ 37
learning 37
Afghanistan 37
power 37
g@@ 37
open 37
turns 36
myself 36
else 36
t 36
along 36
model 36
based 36
pole 36
red 36
exactly 36
twenty 36
parents 36
study 36
term 36
huge 36
E@@ 36
level 36
north 36
gets 35
takes 35
either 35
al@@ 35
problems 35
across 35
card 35
drive 35
turned 34
happy 34
turn 34
lost 34
direction 34
ting 34
behavior 34
animals 34
miles 34
face 34
12 34
molecule 34
fear 34
New 33
t@@ 33
looked 33
science 33
C@@ 33
test 33
machine 33
control 33
ground 33
full 33
bring 33
M@@ 33
run 33
society 33
read 33
pay 33
taking 33
game 33
sex 33
free 33
image 33
United 33
States 33
fish 33
yes 33
production 33
son 32
positive 32
expression 32
ar@@ 32
cost 32
common 32
top 32
during 32
learned 32
groups 32
starting 32
lots 32
couldn 32
wasn 32
en@@ 32
knows 32
population 32
places 32
woman 32
beautiful 32
&amp; 32
ourselves 31
students 31
T@@ 31
cannot 31
order 31
easy 31
eight 31
e 31
mother 31
G@@ 31
program 31
someone 31
25 31
value 31
save 31
cells 31
inside 31
media 31
code 31
root 31
ways 30
research 30
grow 30
longer 30
met 30
li@@ 30
education 30
100 30
F@@ 30
serious 30
chiral 30
music 30
books 30
Bible 30
Gulf 30
kill 29
k@@ 29
under 29
room 29
s 29
given 29
o@@ 29
becomes 29
computer 29
ac@@ 29
fast 29
king 29
process 29
however 29
girl 29
began 29
age 29
American 29
smile 29
thousand 29
wood 29
hands 28
gonna 28
gave 28
watch 28
divided 28
hey 28
knowledge 28
R@@ 28
solve 28
often 28
college 28
w@@ 28
heart 28
rate 28
security 28
community 28
history 28
price 28
W@@ 28
fossil 28
fuels 28
vote 28
m 27
gives 27
whatever 27
against 27
teach 27
divide 27
difficult 27
simply 27
moving 27
natural 27
fun 27
plants 27
personal 27
movie 27
war 27
family 27
powerful 27
benefits 27
paper 27
itself 27
entire 27
hours 27
reaction 27
middle 27
ation 26
ts 26
ated 26
i@@ 26
hear 26
yourself 26
nice 26
situation 26
follow 26
hit 26
third 26
solar 26
questions 26
within 26
leave 26
rather 26
house 26
seems 26
anyone 26
f@@ 26
connected 26
indeed 26
disease 26
gas 26
anyway 26
haha 26
Cyrus 26
r@@ 25
color 25
quad 25
camera 25
student 25
poor 25
return 25
difference 25
photos 25
realized 25
thousands 25
meet 25
di@@ 25
favorite 25
friend 25
seven 25
public 25
spontaneous 25
field 25
11 25
= 25
cross 25
head 24
amazing 24
st@@ 24
finding 24
web 24
i 24
short 24
damage 24
current 24
worth 24
an@@ 24
dis@@ 24
L@@ 24
amount 24
se 24
environment 24
towards 24
Africa 24
store 24
40 24
ti@@ 24
insulin 24
cause 24
piece 24
sides 24
seeing 24
pressure 24
happening 24
general 24
u@@ 24
entropy 24
species 24
spiders 24
th@@ 23
local 23
train 23
pain 23
felt 23
class 23
guess 23
at@@ 23
action 23
size 23
result 23
spent 23
wouldn 23
access 23
ch@@ 23
written 23
cool 23
early 23
created 23
ating 23
ha@@ 23
eating 23
site 23
15 23
India 23
it@@ 23
village 23
humans 23
quadratic 23
star 23
morning 22
ability 22
changed 22
le@@ 22
worse 22
z@@ 22
states 22
parts 22
machines 22
design 22
ex@@ 22
ous 22
con@@ 22
OK 22
ers 22
ly 22
kinds 22
changes 22
tions 22
watching 22
nine 22
literally 22
schools 22
se@@ 22
l@@ 22
hell 22
wait 22
romantic 22
bottom 22
ro@@ 22
or@@ 22
certainly 22
haven 22
black 22
act 22
function 22
die 22
switch 22
national 22
Jaden 22
father 22
giving 21
de 21
sound 21
kid 21
m@@ 21
O@@ 21
extremely 21
running 21
although 21
notice 21
highest 21
scale 21
graph 21
n@@ 21
fire 21
news 21
film 21
realize 21
alone 21
500 21
potential 21
special 21
p 21
clear 21
180 21
degrees 21
tried 21
ted 21
drug 21
S 21
hundreds 21
senses 21
perfect 21
80 21
prime 21
-@@ 21
coal 21
south 21
sine 21
disorders 21
plan 20
York 20
close 20
aren 20
ca@@ 20
as@@ 20
area 20
changing 20
actions 20
distance 20
understanding 20
er@@ 20
provide 20
front 20
equals 20
wrote 20
le 20
brought 20
games 20
be@@ 20
spend 20
ates 20
grew 20
si@@ 20
basic 20
countries 20
sh@@ 20
images 20
obviously 20
ally 20
he@@ 20
60 20
born 20
showed 20
please 20
beginning 20
19@@ 20
lose 20
view 20
results 20
Talks 20
u 20
c@@ 20
mass 20
voice 20
soil 20
robot 20
magnet 20
Kony 20
walking 19
starts 19
cut 19
ma@@ 19
version 19
hopefully 19
multiply 19
except 19
I@@ 19
theory 19
fine 19
fall 19
stay 19
ab@@ 19
economic 19
near 19
outside 19
sun 19
connect 19
purpose 19
buy 19
solution 19
reading 19
challenge 19
terms 19
secret 19
taken 19
pre@@ 19
anymore 19
economy 19
opposite 19
k 19
C 19
above 19
bonded 19
essentially 19
theta 19
product 19
uses 19
forward 19
millions 19
sea 19
particular 19
+ 19
Europe 19
professional 19
climate 19
meters 19
revolution 19
shows 19
individual 19
freedom 19
trees 19
buildings 19
* 19
magnetic 19
Romo 19
street 18
il@@ 18
N@@ 18
team 18
page 18
helping 18
3@@ 18
similar 18
feet 18
key 18
physical 18
impact 18
planet 18
source 18
co@@ 18
type 18
support 18
reality 18
minutes 18
ent 18
list 18
anywhere 18
no@@ 18
crazy 18
Caine 18
nobody 18
discovered 18
on@@ 18
telling 18
incredibly 18
U.S. 18
gone 18
mom 18
needs 18
needed 18
win 18
death 18
seem 18
feeling 18
sp@@ 18
16 18
wall 18
perhaps 18
center 18
lower 18
obesity 18
Well 18
Middle 18
ru@@ 18
absolutely 18
areas 18
translate 18
turtles 18
average 18
block 18
Ha 18
velocity 18
rest 17
No 17
minute 17
week 17
talked 17
18 17
initial 17
known 17
path 17
ag@@ 17
to@@ 17
h@@ 17
connection 17
driving 17
super 17
cell 17
deal 17
survive 17
meaning 17
interested 17
shown 17
l 17
likely 17
ful 17
shot 17
grown 17
systems 17
13 17
wonderful 17
opportunity 17
sick 17
cancer 17
ri@@ 17
notion 17
molecules 17
continue 17
fuel 17
v@@ 17
weeks 17
resources 17
organic 17
Web 17
afraid 17
totally 17
California 17
Iran 17
Tron 17
gt 17
choose 16
f 16
effects 16
chance 16
soon 16
quickly 16
denominator 16
none 16
rain 16
allow 16
75 16
mathematical 16
audience 16
glass 16
ball 16
following 16
animal 16
ine 16
central 16
mo@@ 16
straight 16
pick 16
major 16
issue 16
consider 16
ar 16
expensive 16
law 16
st 16
solutions 16
month 16
d 16
thanks 16
inspired 16
writing 16
taught 16
baby 16
You 16
worked 16
over@@ 16
husband 16
certain 16
actual 16
happiness 16
pictures 16
dangerous 16
walk 16
ks 16
final 16
mirror 16
videos 16
g 16
healthy 16
intuition 16
scientists 16
projects 16
cities 16
useful 16
sale 16
languages 16
message 16
procedure 16
playing 16
tools 16
blue 16
cars 16
creating 16
larger 16
allowed 16
45 16
lab 16
magnitude 16
supply 16
mouse 16
Zen 16
forever 15
wa@@ 15
res 15
led 15
material 15
multiple 15
bi@@ 15
tic 15
op@@ 15
stick 15
force 15
ge@@ 15
ment 15
H 15
stand 15
points 15
figured 15
generation 15
further 15
growing 15
ons 15
ready 15
als 15
steps 15
ended 15
John 15
pass 15
el@@ 15
East 15
phone 15
Jack 15
welcome 15
ded 15
candidate 15
The 15
World 15
recently 15
marriage 15
ds 15
wife 15
focus 15
break 15
&apos;@@ 15
died 15
pro@@ 15
du@@ 15
CH2 15
content 15
resistance 15
effect 15
adding 15
culture 15
Google 15
values 15
2@@ 15
main 15
kept 15
explain 15
com@@ 15
th 15
touch 15
worst 15
Chris 15
suddenly 15
oh 15
electricity 15
deep 15
several 15
amp 15
total 15
paid 15
ocean 15
Beijing 15
200 15
h 15
demand 15
Angle 15
Yugi 15
US 15
Day 15
cylinder 15
CAPTCHA 15
listen 14
alive 14
programming 14
.@@ 14
sent 14
14 14
length 14
region 14
ra@@ 14
7@@ 14
added 14
tells 14
carrying 14
air 14
exact 14
recognize 14
remainder 14
choice 14
behind 14
produce 14
inter@@ 14
dark 14
pieces 14
out@@ 14
studying 14
products 14
complete 14
bus 14
confidence 14
November 14
creativity 14
events 14
K@@ 14
characters 14
biggest 14
girls 14
beyond 14
market 14
ta@@ 14
begin 14
ses 14
so@@ 14
tax 14
300 14
joy 14
eye 14
Tony 14
familiar 14
afford 14
birds 14
mine 14
grade 14
B 14
North 14
eyes 14
trust 14
white 14
fight 14
translation 14
teeth 14
enthalpy 14
disorder 14
formula 14
adults 14
ans 14
anybody 14
humanity 14
livestock 14
laugh 14
funny 14
Yusei 14
Grandpa 14
modern 14
SR 14
Weibo 14
wheelchair 14
measure 13
re 13
la@@ 13
ice 13
foot 13
fi@@ 13
service 13
ments 13
ten 13
ins 13
am@@ 13
stable 13
fly 13
lo@@ 13
algorithms 13
models 13
the@@ 13
ver@@ 13
sa@@ 13
designed 13
fully 13
hold 13
standard 13
skills 13
speed 13
increase 13
ne@@ 13
daughter 13
wide 13
helped 13
families 13
search 13
waiting 13
traffic 13
ance 13
dream 13
imp@@ 13
throughout 13
response 13
online 13
ship 13
ding 13
ve 13
D 13
loved 13
post 13
everywhere 13
c 13
largest 13
cover 13
send 13
der 13
smaller 13
cor@@ 13
sorts 13
bu@@ 13
ary 13
stopped 13
blood 13
ness 13
scientific 13
sequence 13
developed 13
prevent 13
ty 13
protect 13
quality 13
proud 13
ol@@ 13
Ch@@ 13
dead 13
travel 13
Iraq 13
website 13
active 13
pa@@ 13
weather 13
grows 13
programs 13
century 13
creative 13
eventually 13
series 13
delta 13
electrons 13
equivalent 13
4@@ 13
among 13
hidden 13
map 13
materials 13
possibly 13
object 13
river 13
seriously 13
meat 13
Mother 13
agent 13
Jacob 13
Scratch 13
text 13
XL 13
lemons 13
College 13
ant 12
magic 12
ke 12
hi 12
broken 12
min@@ 12
TV 12
express 12
6@@ 12
separate 12
popular 12
ically 12
ad@@ 12
position 12
instance 12
allows 12
effort 12
location 12
per@@ 12
atmosphere 12
standing 12
perspective 12
10,000 12
whenever 12
worry 12
is@@ 12
due 12
choices 12
forget 12
passion 12
wish 12
ling 12
directly 12
promise 12
math 12
conflict 12
jobs 12
Taliban 12
streets 12
vi@@ 12
mental 12
tool 12
South 12
ms 12
cal 12
ic 12
researchers 12
mostly 12
risk 12
begins 12
ys 12
bunch 12
definitely 12
easily 12
involved 12
dimensional 12
sounds 12
spread 12
patients 12
communicate 12
garden 12
present 12
photo 12
Face 12
impossible 12
covered 12
immediately 12
V@@ 12
E 12
en 12
caused 12
represents 12
spaces 12
terminate 12
causing 12
private 12
teacher 12
calls 12
heat 12
matters 12
experiment 12
estate 12
coefficient 12
mi@@ 12
coding 12
medicine 12
surface 12
exist 12
brains 12
decimal 12
Mexico 12
dragline 12
attachment 12
repeat 12
addition 12
workers 12
Paradox 12
cards 12
fraction 12
Joseph 12
smiling 12
babies 12
decline 12
minister 12
votes 12
completing 12
helps 11
ze 11
dealing 11
tend 11
ec@@ 11
ran 11
asking 11
man@@ 11
software 11
approach 11
putting 11
ter 11
push 11
ties 11
specific 11
simplify 11
definition 11
goal 11
zero 11
feedback 11
practice 11
ends 11
lesson 11
configuration 11
gr@@ 11
wants 11
gu@@ 11
progress 11
companies 11
sit 11
wind 11
smell 11
yellow 11
youngsters 11
visit 11
70 11
mon@@ 11
90 11
played 11
strong 11
click 11
university 11
available 11
decades 11
buses 11
non 11
limited 11
j@@ 11
tu@@ 11
sleep 11
dad 11
J@@ 11
ings 11
zed 11
essential 11
evidence 11
lets 11
um 11
incredible 11
company 11
sta@@ 11
sorry 11
grandmother 11
majority 11
higher 11
dancing 11
honor 11
sleeping 11
obvious 11
fat 11
digital 11
tired 11
wonder 11
chemistry 11
patient 11
diabetes 11
diet 11
treat 11
attention 11
industry 11
me@@ 11
journey 11
ph@@ 11
computers 11
plant 11
tics 11
zing 11
pasting 11
ir@@ 11
killed 11
understood 11
photograph 11
wearing 11
rules 11
ad 11
nervous 11
drugs 11
report 11
1@@ 11
U@@ 11
below 11
score 11
press 11
West 11
weren 11
slow 11
loss 11
cooking 11
universal 11
desert 11
9@@ 11
33 11
massive 11
Y@@ 11
dry 11
emissions 11
bought 11
paying 11
needle 11
dating 11
faster 11
rock 11
nuclear 11
ence 11
smart 11
odd 11
fibers 11
shouldn 11
foreign 11
sin 11
triangle 11
recent 11
secrets 11
cat 11
account 11
increasing 11
Barefoot 11
fifty 11
shoes 10
up@@ 10
medical 10
ot@@ 10
somehow 10
ping 10
holding 10
au@@ 10
screen 10
greatest 10
notes 10
numerator 10
route 10
flying 10
board 10
objects 10
mar@@ 10
combined 10
facts 10
forces 10
ats 10
qu@@ 10
ul@@ 10
roughly 10
fourth 10
condition 10
ren@@ 10
particles 10
event 10
leaders 10
previous 10
University 10
distribution 10
truth 10
options 10
whose 10
50,000 10
ve@@ 10
boy 10
ci@@ 10
watched 10
wave 10
awesome 10
bo@@ 10
sign 10
critical 10
neighborhood 10
leads 10
developing 10
innovation 10
interest 10
ic@@ 10
stage 10
rule 10
weight 10
apart 10
wow 10
est 10
lie 10
des 10
sub@@ 10
relationships 10
dy 10
tes 10
et@@ 10
comfortable 10
letter 10
dly 10
burning 10
failed 10
ang@@ 10
fundamental 10
agree 10
speak 10
floor 10
erase 10
us@@ 10
dance 10
truly 10
teaching 10
weird 10
television 10
shoot 10
om@@ 10
supposed 10
subject 10
forms 10
wi@@ 10
especially 10
trick 10
ps 10
ity 10
variables 10
clock 10
height 10
twice 10
sitting 10
plot 10
traditional 10
British 10
strange 10
Bandura 10
Wikipedia 10
excited 10
releasing 10
fewer 10
requires 10
G 10
German 10
loop 10
ked 10
destroyed 10
heaven 10
spin 10
es@@ 10
development 10
clearly 10
forest 10
creates 10
names 10
ahead 10
ancient 10
context 10
ride 10
orb 10
degree 10
2.5 10
angle 10
Alice 10
tall 10
duel 10
marked 10
suffering 10
technologies 10
blocks 10
dopamine 10
president 10
desertification 10
57 10
subtraction 10
summaries 10
Tuesday 10
digitize 10
structure 9
town 9
ni@@ 9
memories 9
George 9
hair 9
strength 9
ist 9
married 9
bar 9
ving 9
les 9
check 9
onto 9
Arad 9
door 9
capture 9
physics 9
ch 9
drop 9
extreme 9
novel 9
handle 9
flip 9
necessary 9
ative 9
earlier 9
laws 9
w 9
limits 9
der@@ 9
services 9
r 9
ck 9
ton 9
summer 9
2008 9
da@@ 9
respect 9
answers 9
sion 9
income 9
rich 9
issues 9
successful 9
becoming 9
opinion 9
email 9
gain 9
sed 9
decide 9
easiest 9
stuck 9
challenges 9
harder 9
mountain 9
random 9
hour 9
Facebook 9
transform 9
ars 9
.com 9
Texas 9
invest 9
feed 9
round 9
lived 9
peace 9
topic 9
Bosnia 9
official 9
and@@ 9
businesses 9
20@@ 9
dollar 9
related 9
exceptions 9
pl@@ 9
ring 9
ari@@ 9
ga@@ 9
success 9
complicated 9
tive 9
ry 9
relationship 9
increases 9
healthier 9
par@@ 9
mark 9
car@@ 9
examples 9
hydrogen 9
track 9
Con@@ 9
advanced 9
doctor 9
Americans 9
conventional 9
ster 9
diseases 9
appear 9
ter@@ 9
te@@ 9
remind 9
ches 9
cr@@ 9
we@@ 9
bread 9
variable 9
probability 9
600 9
ain 9
Western 9
Paris 9
17 9
pasted 9
noise 9
paste 9
launched 9
ur@@ 9
limit 9
shocked 9
violence 9
kers 9
election 9
moved 9
element 9
elements 9
unlikely 9
O 9
pharmacokinetics 9
ak 9
Jewish 9
killing 9
Al@@ 9
seat 9
M 9
summary 9
hardware 9
compare 9
satellite 9
differently 9
hate 9
sted 9
period 9
require 9
realistic 9
daily 9
ingredients 9
dying 9
64 9
received 9
users 9
19 9
cl@@ 9
showing 9
percentage 9
Khan 9
original 9
volume 9
1,000 9
including 9
tangent 9
tan 9
2002 9
22 9
vast 9
Maine 9
Itjtawy 9
formed 9
Japanese 9
sc@@ 9
amounts 9
football 9
threat 9
asteroid 9
Central 9
hunger 9
greenhouse 9
cattle 9
acting 9
go@@ 9
device 9
discovery 9
silks 9
unit 9
unfortunately 9
exciting 9
Jews 9
magnetism 9
magnets 9
--@@ 9
interactive 9
Babylon 9
finger 9
perpendicular 9
peak 9
bare 9
political 9
10s 9
censorship 9
Duolingo 9
vf 9
surveillance 9
0.75 9
City 8
ju@@ 8
x@@ 8
su@@ 8
lucky 8
ap@@ 8
cha@@ 8
Ar@@ 8
faces 8
basis 8
ay 8
concept 8
achieve 8
quads 8
cameras 8
physically 8
perform 8
controlled 8
sting 8
tri@@ 8
strategy 8
sky 8
greater 8
feels 8
interact 8
increased 8
ined 8
financial 8
table 8
storm 8
giant 8
reach 8
5,000 8
earth 8
colors 8
hello 8
ces 8
rise 8
mentioned 8
tomorrow 8
explore 8
raise 8
ite 8
clothes 8
childhood 8
motivation 8
nowadays 8
sing 8
entered 8
ws 8
presented 8
according 8
decade 8
planning 8
cold 8
teachers 8
named 8
posted 8
Los 8
Angeles 8
ations 8
nearly 8
lines 8
customers 8
Twitter 8
ta 8
fan 8
imagination 8
count 8
entrepreneurs 8
seemed 8
markets 8
capital 8
State 8
ls 8
double 8
whereas 8
gut 8
entirely 8
causes 8
argument 8
currently 8
encourage 8
San 8
philosophy 8
failure 8
usually 8
to-- 8
chlorine 8
drawing 8
bonds 8
regardless 8
enjoy 8
ron@@ 8
despite 8
safe 8
complex 8
evolved 8
sha@@ 8
tested 8
letting 8
destroy 8
pi@@ 8
35 8
Why 8
evolution 8
generates 8
describe 8
network 8
depends 8
listening 8
military 8
Are 8
terrible 8
What 8
Please 8
traveled 8
ob@@ 8
sudden 8
col@@ 8
release 8
Z@@ 8
LE@@ 8
efficacy 8
But 8
fascinating 8
religion 8
sheep 8
finished 8
junk 8
arm 8
experiences 8
atmospheric 8
pages 8
blow 8
tion 8
enormous 8
sections 8
base 8
brush 8
factor 8
disperse 8
patches 8
te 8
affected 8
perspectives 8
safety 8
snake 8
crisis 8
MRI 8
constant 8
somewhat 8
bs 8
guide 8
ited 8
65 8
8@@ 8
remarkable 8
shock 8
President 8
An@@ 8
runs 8
uh 8
affect 8
international 8
deforestation 8
agriculture 8
construction 8
laid 8
symbol 8
technically 8
apartment 8
hotel 8
dinner 8
tr@@ 8
movies 8
tiny 8
somewhere 8
plain 8
stream 8
booms 8
rid 8
po@@ 8
median 8
ves 8
pri@@ 8
hi@@ 8
shared 8
Afghan 8
lights 8
We 8
Yes 8
tw@@ 8
consumption 8
sad 8
corn 8
meals 8
players 8
reduce 8
prey 8
sentences 8
Asian 8
bodies 8
panels 8
race 8
YOUR 8
&apos;S 8
Venice 8
Yu 8
Gi 8
Mandark 8
Magnesia 8
geographic 8
charge 8
personalized 8
deliver 8
older 8
late 8
Senators 8
debate 8
pe@@ 8
knot 8
moles 8
decides 8
vector 8
Al 8
intervention 8
mobile 8
Norquist 8
retirement 8
Talk 8
cats 8
deception 8
12.5 8
bed 7
riding 7
lecture 7
ker 7
Street 7
tively 7
saved 7
parking 7
training 7
concepts 7
engineering 7
YouTube 7
Com@@ 7
fixed 7
bear 7
road 7
various 7
behave 7
captured 7
gravity 7
pointing 7
easier 7
fe@@ 7
minimum 7
lin@@ 7
finish 7
tra@@ 7
planned 7
kes 7
mp@@ 7
concerned 7
role 7
mis@@ 7
technical 7
Au@@ 7
pas@@ 7
rights 7
join 7
Indian 7
raised 7
fishing 7
producing 7
slightly 7
Hong 7
character 7
experienced 7
bur@@ 7
display 7
sat 7
happier 7
generations 7
comp@@ 7
option 7
arrive 7
ali@@ 7
sold 7
park 7
hasn 7
significant 7
internet 7
scientist 7
sustainable 7
sugar 7
cardboard 7
100,000 7
Re@@ 7
shirt 7
talks 7
Foundation 7
victims 7
career 7
hu@@ 7
gen@@ 7
secure 7
How 7
danger 7
survival 7
ev@@ 7
employees 7
tional 7
Korea 7
overall 7
Washington 7
mortality 7
reasons 7
stores 7
ort 7
bigger 7
ur 7
all@@ 7
partners 7
studies 7
department 7
divorce 7
id 7
birthday 7
ably 7
dies 7
ging 7
searching 7
factors 7
il 7
anytime 7
Let 7
wise 7
cu@@ 7
ridiculous 7
everyday 7
therefore 7
atoms 7
justice 7
facing 7
bromine 7
shift 7
chemical 7
types 7
for@@ 7
range 7
enters 7
axis 7
normally 7
suffer 7
note 7
master 7
foods 7
missing 7
ban@@ 7
ams 7
associated 7
address 7
focused 7
And 7
equipment 7
24 7
depend 7
sts 7
invented 7
naked 7
fill 7
L 7
stone 7
defined 7
Hey 7
politics 7
2005 7
army 7
calm 7
br@@ 7
ah 7
meant 7
police 7
traveling 7
roofs 7
confused 7
museum 7
pos@@ 7
ner 7
ard 7
Children 7
fell 7
respond 7
Francisco 7
banks 7
colored 7
musical 7
devices 7
closer 7
translating 7
zation 7
quick 7
bike 7
combine 7
density 7
generous 7
Huh 7
button 7
emotional 7
Billy 7
Betty 7
sensitive 7
ale 7
transformation 7
Doug 7
extraordinary 7
trained 7
movement 7
absorb 7
intuitive 7
temperatures 7
her@@ 7
Dark 7
lead 7
driven 7
ths 7
roads 7
wasted 7
leaving 7
que 7
nation 7
honest 7
mistakes 7
purple 7
losing 7
genetic 7
protein 7
industrial 7
farm 7
Red 7
winter 7
Mozilla 7
engine 7
150 7
debt 7
bet 7
sur@@ 7
ft 7
Egypt 7
beach 7
Kingdom 7
circle 7
BC 7
fied 7
cla@@ 7
signs 7
holes 7
bank 7
wells 7
mb@@ 7
2004 7
probe 7
throw 7
fail 7
chicken 7
fair 7
ultimately 7
turning 7
weaving 7
tree 7
Triangle 7
condoms 7
curious 7
messages 7
define 7
rates 7
activity 7
capacity 7
IS 7
Steve 7
inner 7
YUSEl 7
Mawefic 7
Dragon 7
lack 7
3D 7
shall 7
gentlemen 7
oo@@ 7
wanna 7
dependent 7
finds 7
Canada 7
vectors 7
electron 7
doctors 7
summarize 7
returns 7
shining 7
Obama 7
fractions 7
hypotenuse 7
typing 7
postcard 7
mimic 7
platform 7
temple 7
minerals 7
sister 7
setting 7
Iranian 7
identity 7
contains 7
Bob 7
decisive 7
crime 7
oneness 7
pattern 7
grassland 7
mice 7
activate 7
51 7
8th 7
microblogging 7
electrified 7
grandmothers 7
Electoral 7
49 7
Bulgaria 7
vi 7
meme 7
Ulam 7
pants 7
seventy 7
members 6
hitting 6
va@@ 6
frozen 6
spot 6
gotta 6
doors 6
record 6
ke@@ 6
user 6
fix 6
ignore 6
sequences 6
controlling 6
roll 6
cate 6
manipulate 6
suppose 6
advantage 6
nu@@ 6
importance 6
wor@@ 6
net 6
mainly 6
performance 6
acceleration 6
pull 6
correct 6
sports 6
sweet 6
dynamic 6
vertical 6
interacting 6
moves 6
estimate 6
lu@@ 6
ture 6
analogy 6
faced 6
He@@ 6
held 6
feeds 6
tor@@ 6
warm 6
grass 6
ning 6
kidding 6
witness 6
thinner 6
Kong 6
female 6
leg@@ 6
receiving 6
bags 6
comfort 6
zone 6
transportation 6
cheap 6
competition 6
counter 6
wealth 6
relevant 6
fighting 6
cy@@ 6
ver 6
rare 6
fashion 6
ites 6
sharing 6
tens 6
party 6
customer 6
precise 6
universe 6
fil@@ 6
Arcade 6
fund 6
U.K. 6
Everywhere 6
inspiring 6
foster 6
ors 6
mic 6
ss@@ 6
opening 6
oned 6
ee@@ 6
cases 6
advertising 6
ust 6
ive 6
loan 6
productivity 6
flow 6
replace 6
secondly 6
folks 6
ots 6
billions 6
couples 6
beauty 6
reports 6
nic@@ 6
Oscar 6
Be@@ 6
tie 6
cur@@ 6
ery 6
ho@@ 6
struggle 6
federal 6
profound 6
ingly 6
minds 6
depending 6
rotate 6
ality 6
properties 6
fication 6
can@@ 6
ble 6
resource 6
ns 6
sh 6
hospital 6
empathy 6
27 6
cup 6
passed 6
herself 6
resistant 6
controls 6
increasingly 6
pounds 6
epidemic 6
cop@@ 6
mechanism 6
underneath 6
reverse 6
worried 6
processes 6
grains 6
ed@@ 6
offer 6
default 6
keeping 6
efficient 6
copy 6
flowers 6
ction 6
reminds 6
disappear 6
tweet 6
den@@ 6
assume 6
os@@ 6
grades 6
tors 6
ely 6
So 6
Ma@@ 6
2011 6
top@@ 6
fri@@ 6
illegal 6
mm 6
lens 6
lawyer 6
experts 6
arrived 6
Jesus 6
societies 6
Heroes 6
sentence 6
ched 6
meeting 6
soldiers 6
sti@@ 6
caught 6
layers 6
communities 6
roof 6
participate 6
speaking 6
array 6
outcome 6
RE 6
jump 6
pharmacodynamics 6
component 6
En@@ 6
im@@ 6
mu@@ 6
mile 6
cru@@ 6
surprising 6
expect 6
deadly 6
figuring 6
whom 6
effective 6
do@@ 6
lunch 6
Car@@ 6
400 6
methane 6
policy 6
scores 6
dot 6
complexity 6
powered 6
taste 6
designs 6
conclusion 6
emotions 6
turtle 6
In@@ 6
iPad 6
silly 6
shake 6
forgot 6
browser 6
himself 6
horse 6
saving 6
directions 6
decisions 6
y-- 6
assuming 6
absorbing 6
brown 6
s-- 6
cos@@ 6
translated 6
upon 6
gi@@ 6
fore@@ 6
gra@@ 6
credit 6
aspect 6
vision 6
constantly 6
presentation 6
review 6
36 6
radical 6
divisible 6
Newtown 6
sorrow 6
hearts 6
evil 6
parent 6
fit 6
crowd 6
funding 6
cares 6
Academy 6
log 6
creator 6
office 6
economics 6
agricultural 6
input 6
pros@@ 6
oceans 6
allowing 6
pre 6
profits 6
2,000 6
destruction 6
3,000 6
stem 6
creation 6
unexpected 6
puzzle 6
perfectly 6
contain 6
landscape 6
pi 6
footprint 6
fingers 6
fold 6
zes 6
dioxide 6
.5 6
hoping 6
eggs 6
gs 6
biological 6
sell 6
weapon 6
window 6
crater 6
Co@@ 6
falling 6
fans 6
Apophis 6
engineers 6
tle 6
ion 6
St@@ 6
border 6
Cor@@ 6
Le@@ 6
gift 6
villages 6
chosen 6
gases 6
generated 6
lifestyle 6
agencies 6
cook 6
fresh 6
produced 6
thus 6
shed 6
essence 6
print 6
manufacturing 6
orders 6
glands 6
thirds 6
5@@ 6
keeps 6
song 6
measured 6
cave 6
Vancouver 6
engineer 6
distant 6
maintain 6
dig 6
Pwotagonist 6
Games 6
Dwagon 6
Magician 6
typical 6
woah 6
Shadow 6
Realm 6
stupid 6
summon 6
Synchro 6
lay 6
rewrite 6
cliff 6
tion@@ 6
fairly 6
floss 6
Gavin 6
crimes 6
rescue 6
off@@ 6
ered 6
fluent 6
Matty 6
phones 6
wanting 6
mole 6
moments 6
freeway 6
rituals 6
Marduk 6
Tehran 6
rivers 6
barrels 6
peaked 6
23 6
challenging 6
besides 6
voting 6
decrease 6
Ro@@ 6
representing 6
Firefox 6
troops 6
125 6
awkward 6
environments 6
grazing 6
Buffalo 6
Justin 6
LCM 6
graduate 6
0.@@ 6
Representatives 6
angry 6
server 6
Embassy 6
diagnosis 6
translations 6
thou 6
NSA 6
16x 6
2ax 6
121 6
144 6
shrinks 6
chlorophyil 6
leaf 6
wake 5
dressed 5
extra 5
subway 5
professor 5
ven@@ 5
usual 5
stored 5
thumb 5
overwhelming 5
gotten 5
motorcycle 5
Yeah 5
luck 5
David 5
2012 5
pu@@ 5
appreciate 5
domain 5
undefined 5
occur 5
Bucharest 5
explored 5
diagram 5
components 5
sum 5
costs 5
demonstrate 5
athleticism 5
mechan@@ 5
speeds 5
brings 5
bro@@ 5
syn@@ 5
located 5
ges 5
naturally 5
ters 5
motor 5
unconventional 5
ish 5
maneuver 5
str@@ 5
milliseconds 5
calculate 5
execute 5
extension 5
commercial 5
interaction 5
filming 5
kingdom 5
similarly 5
introduce 5
ards 5
ying 5
Mar@@ 5
forced 5
trade 5
continued 5
subjects 5
capable 5
na@@ 5
monsters 5
slope 5
principle 5
vacation 5
legal 5
wage 5
cleaner 5
collecting 5
toilet 5
salary 5
returned 5
ge 5
conditioned 5
factory 5
fat@@ 5
belief 5
papers 5
caring 5
academic 5
fortunate 5
refuse 5
phenomenon 5
episode 5
likewise 5
flo@@ 5
decision 5
willing 5
motivated 5
improved 5
carry 5
dreams 5
likes 5
apping 5
routes 5
necessarily 5
link 5
perceive 5
our@@ 5
pur@@ 5
wel@@ 5
Mt 5
mention 5
arcade 5
empty 5
Monday 5
London 5
Jo@@ 5
roo@@ 5
Imagination 5
interests 5
arts 5
ent@@ 5
lan@@ 5
October 5
host 5
raising 5
invite 5
shapes 5
invisible 5
struggling 5
immediate 5
provided 5
windows 5
starvation 5
gar@@ 5
wing 5
counting 5
Tri@@ 5
micro 5
seeking 5
ignored 5
expand 5
micro@@ 5
hand@@ 5
loans 5
emerging 5
tly 5
makers 5
ped 5
ast 5
applied 5
supported 5
under@@ 5
benefit 5
che@@ 5
marriages 5
ss 5
suggesting 5
exercising 5
ba@@ 5
suggests 5
relatively 5
photographs 5
cking 5
fake 5
ill@@ 5
ank 5
ther@@ 5
crash 5
therapy 5
wondering 5
gun 5
scare 5
pop 5
ony 5
ies 5
ste@@ 5
reas@@ 5
pped 5
ering 5
ory 5
contained 5
cy 5
pulled 5
compassion 5
nights 5
pan@@ 5
importantly 5
judgment 5
determined 5
closed 5
assumptions 5
tioned 5
metabolic 5
burn 5
shocking 5
obsessed 5
sin@@ 5
ders 5
sal@@ 5
obese 5
ought 5
coun@@ 5
personally 5
bias 5
pretend 5
highly 5
experiments 5
sm 5
studied 5
centers 5
servers 5
globally 5
granted 5
invention 5
reproduce 5
No@@ 5
blew 5
reproduction 5
passes 5
tor 5
letters 5
edge 5
simpler 5
CPDs 5
generate 5
intelligence 5
Po@@ 5
winner 5
exhibition 5
frame 5
revealed 5
els 5
portraits 5
Israeli 5
driver 5
accept 5
Okay 5
tear 5
ator 5
circumstances 5
Brazil 5
bringing 5
violent 5
association 5
hungry 5
stairs 5
ff@@ 5
explanation 5
Sierra 5
Leone 5
France 5
vin@@ 5
joke 5
walls 5
cul@@ 5
arrest 5
photography 5
invited 5
CA 5
Man 5
details 5
arbitrary 5
trouble 5
calling 5
vo@@ 5
cated 5
trans@@ 5
CO@@ 5
W 5
AN@@ 5
TO 5
lNG 5
pot@@ 5
required 5
spirit 5
dogs 5
apply 5
campaign 5
wear 5
cholesterol 5
Dan 5
ot 5
tons 5
tour 5
Stanford 5
chronic 5
AC@@ 5
muscles 5
innocent 5
mal@@ 5
fl@@ 5
depression 5
severe 5
fantastic 5
headlines 5
clip 5
approximately 5
super@@ 5
har@@ 5
sub 5
el 5
2007 5
extract 5
generally 5
horizontal 5
behavioral 5
timeline 5
versus 5
offers 5
alternative 5
damn 5
war@@ 5
sun@@ 5
blank 5
brilliant 5
focusing 5
intense 5
hits 5
Nor@@ 5
pat@@ 5
error 5
comment 5
expected 5
variation 5
ideal 5
Hindu 5
wedding 5
paint 5
goats 5
King 5
Muslims 5
Pakistan 5
cute 5
update 5
Jennie 5
Bar@@ 5
clay 5
shut 5
surprise 5
snakes 5
reported 5
exothermic 5
egg 5
kinetic 5
bump 5
enter 5
released 5
drifting 5
barely 5
claim 5
predict 5
satisfy 5
ants 5
operating 5
hadn 5
drives 5
sive 5
simplicity 5
substitute 5
2a 5
97 5
32 5
eternal 5
gather 5
ours 5
sacrifice 5
courage 5
ck@@ 5
excuse 5
kindness 5
bless 5
trend 5
falls 5
Alright 5
Y 5
existing 5
Who 5
liked 5
conservation 5
exists 5
trillion 5
rainfall 5
unless 5
measuring 5
protection 5
Green 5
largely 5
favorites 5
55 5
vice 5
combining 5
sho@@ 5
underwater 5
98 5
sq. 5
flat 5
suggest 5
sions 5
lessly 5
sexy 5
stack 5
choosing 5
collect 5
layer 5
stones 5
sphere 5
warming 5
normal 5
solves 5
larvae 5
shoreline 5
tar 5
mess 5
attempt 5
bacteria 5
article 5
appeared 5
z 5
wn 5
ounds 5
season 5
leak 5
tionally 5
conservative 5
dr@@ 5
websites 5
dinosaurs 5
explosion 5
coast 5
broke 5
vehicles 5
metal 5
scared 5
2009 5
toward 5
lit@@ 5
miss 5
reference 5
sophisticated 5
Eastern 5
surprised 5
tea 5
truck 5
mad 5
underground 5
educators 5
adult 5
That 5
opposed 5
missed 5
tough 5
anti 5
heavily 5
craving 5
remained 5
ce 5
restaurant 5
fancy 5
marketing 5
proteins 5
iling 5
70s 5
packed 5
tru@@ 5
recommend 5
sites 5
diverse 5
40,000 5
spiral 5
shape 5
compared 5
convenient 5
testing 5
toughness 5
21 5
catch 5
If 5
HlV 5
donor 5
95 5
lowest 5
ros@@ 5
grams 5
steel 5
concrete 5
Nature 5
architects 5
cubic 5
ne 5
ani@@ 5
picked 5
differences 5
ill 5
steal 5
shit 5
Thank 5
motorcycles 5
THE 5
YOU 5
THAT 5
T 5
Bat@@ 5
mistake 5
gay 5
male 5
engines 5
Pegasus 5
Mo@@ 5
orgasm 5
ang 5
ya 5
served 5
Pwotagonists 5
homo 5
oun@@ 5
Summon 5
evolve 5
waste 5
Do@@ 5
strangers 5
viewed 5
confusing 5
dipole 5
engage 5
engagement 5
mouth 5
Me@@ 5
-No 5
Sp@@ 5
Uganda 5
sexual 5
awareness 5
division 5
balloon 5
member 5
Victor 5
reached 5
feelings 5
PostSecret 5
suicide 5
July 5
smiles 5
2010 5
Sweden 5
Buddha 5
Kasyapa 5
lust 5
noises 5
d-- 5
accurate 5
22.4 5
0.098 5
Orleans 5
loving 5
Belshazzar 5
Hebrew 5
Babylonian 5
peoples 5
gods 5
document 5
0s 5
Revolution 5
Christians 5
Nations 5
barrel 5
pumped 5
profit 5
distances 5
bottle 5
urban 5
infinite 5
prepare 5
symptoms 5
iPhone 5
hide 5
tracking 5
0,000 5
priorities 5
ten@@ 5
otherness 5
anthropology 5
selves 5
ultimate 5
grasslands 5
elephants 5
Anderson 5
NARRATOR 5
reactivate 5
provides 5
retirees 5
retire 5
transparency 5
punishment 5
Christ 5
bears 5
microbloggers 5
electors 5
Geoff 5
Netizens 5
doodling 5
coloured 5
madly 5
partner 5
alike 5
regular 5
responses 5
seconds 5
Improv 5
Aicha 5
CAPTCHAs 5
reCAPTCHA 5
Spanish 5
penny 5
Constitution 5
comparative 5
courts 5
whisker 5
halfway 5
crane 5
organi@@ 4
laces 4
instantly 4
tying 4
latest 4
eri@@ 4
managed 4
Lu@@ 4
thetic 4
bing 4
ining 4
skill 4
pushed 4
vehicle 4
Berkeley 4
feature 4
recorded 4
ber@@ 4
rely 4
volunteer 4
staff 4
celebrities 4
18@@ 4
square@@ 4
statement 4
expressions 4
functions 4
aps 4
counts 4
paths 4
propellers 4
laptop 4
tioning 4
ential 4
equations 4
pointer 4
kings 4
acts 4
spill 4
athletes 4
oc@@ 4
ace@@ 4
approaching 4
entry 4
motion 4
jec@@ 4
stri@@ 4
launch 4
continuously 4
appropriate 4
Ser@@ 4
institutions 4
protecting 4
sou@@ 4
tip 4
Long 4
Island 4
grandfather 4
hot 4
clouds 4
exploration 4
illustrate 4
charged 4
forming 4
ise 4
blues 4
lovely 4
module 4
pleasure 4
published 4
linked 4
chatting 4
6,000 4
Ms. 4
knowing 4
honestly 4
fir@@ 4
rec@@ 4
con 4
birth 4
property 4
thoughts 4
youth 4
key@@ 4
opt 4
insi@@ 4
forcing 4
achieved 4
ce@@ 4
sn@@ 4
trac@@ 4
installed 4
pursue 4
observed 4
touched 4
reck@@ 4
habit 4
noticed 4
desk 4
awful 4
possibility 4
25,000 4
ringing 4
Saturday 4
worldwide 4
ned 4
pencil 4
prize 4
.. 4
boss 4
stu@@ 4
inv@@ 4
participated 4
6th 4
Global 4
districts 4
Park 4
ala 4
buying 4
oop 4
survivors 4
mat@@ 4
tered 4
decent 4
ama@@ 4
entrepreneur 4
bra@@ 4
ved 4
read@@ 4
win@@ 4
ners 4
shoe 4
selling 4
nearby 4
former 4
squ@@ 4
pil@@ 4
inve@@ 4
conference 4
inten@@ 4
otherwise 4
aim 4
medium 4
Indonesia 4
established 4
Bank 4
emp@@ 4
invent 4
sourcing 4
sized 4
prepared 4
nutrition 4
liter@@ 4
gender 4
participation 4
cou@@ 4
My 4
dear 4
yours 4
fel@@ 4
lea@@ 4
L.A. 4
valued 4
desperately 4
shopping 4
nor@@ 4
neither 4
blind 4
happily 4
ism 4
sets 4
neighbors 4
tives 4
honey 4
stars 4
tch 4
Christmas 4
fu@@ 4
kiss 4
spo@@ 4
lifetime 4
vis@@ 4
emotionally 4
lean 4
ced 4
ously 4
Qu@@ 4
opinions 4
moral 4
cre@@ 4
ide@@ 4
sch@@ 4
Bill 4
Clinton 4
affects 4
identify 4
candidates 4
hydrogens 4
extend 4
back@@ 4
drew 4
fluorine 4
versions 4
enantiomers 4
stereoisomers 4
configurations 4
tations 4
spring 4
2006 4
aged 4
E.R. 4
cer 4
fle@@ 4
wed 4
committed 4
coffee 4
frequently 4
wisdom 4
pyramid 4
subtracting 4
assu@@ 4
mani@@ 4
symptom 4
deeper 4
cation 4
treating 4
pharmaceutical 4
proxy 4
mit@@ 4
calories 4
consume 4
practical 4
implement 4
staying 4
illness 4
punish 4
clinical 4
forgive 4
parameter 4
vir@@ 4
bees 4
co 4
shing 4
vegetables 4
motivates 4
hip 4
section 4
rediscover 4
appe@@ 4
aring 4
bin@@ 4
limitation 4
construct 4
drawn 4
CPD 4
distribu@@ 4
Mc@@ 4
resi@@ 4
French 4
gallery 4
title 4
gh@@ 4
v 4
cops 4
fire@@ 4
oting 4
criminals 4
sto@@ 4
distorted 4
Palestinian 4
dri@@ 4
reactions 4
tears 4
June 4
favela 4
station 4
sses 4
walked 4
exchange 4
Su@@ 4
desire 4
ex 4
rebel 4
targeted 4
houses 4
dust 4
corporate 4
responsibility 4
yesterday 4
artwork 4
Gi@@ 4
belong 4
index 4
ing-- 4
Tl@@ 4
AL@@ 4
lN@@ 4
ST@@ 4
EL@@ 4
AR@@ 4
rush 4
precisely 4
beard 4
Ted 4
logy 4
ics 4
Bu@@ 4
ind@@ 4
loud 4
irs 4
De@@ 4
ologist 4
ences 4
feather 4
Chandler 4
wrist 4
refer 4
interpret 4
nerves 4
mor@@ 4
stimul@@ 4
crude 4
fying 4
activities 4
sen@@ 4
prophe@@ 4
Inter@@ 4
panel 4
gathering 4
topics 4
narrow 4
900 4
illion 4
grid 4
cal@@ 4
tower 4
rainforest 4
aircraft 4
130 4
val@@ 4
laboratory 4
dozen 4
offshore 4
Museum 4
vocabulary 4
Ph.D. 4
laughing 4
sunflower 4
evening 4
gl@@ 4
shine 4
gging 4
evaluate 4
quote 4
till 4
candy 4
compete 4
comments 4
ads 4
setup 4
curve 4
neat 4
Pop 4
It 4
kle 4
fa@@ 4
Islamic 4
religious 4
cried 4
16th 4
Du@@ 4
fuzzy 4
earliest 4
paren@@ 4
vulnerable 4
worker 4
mail 4
attack 4
thoughtful 4
School 4
Brian 4
threw 4
particularly 4
workshop 4
innovative 4
psychologist 4
mastery 4
successes 4
ines 4
iter@@ 4
ators 4
dra@@ 4
mothers 4
neck 4
ma 4
quest 4
absorbed 4
tends 4
ordered 4
entropic 4
particle 4
drift 4
spontaneity 4
weak 4
Arabic 4
citizens 4
entering 4
TO@@ 4
solved 4
reaching 4
eng@@ 4
issued 4
winning 4
Highway 4
jo@@ 4
52 4
regain 4
increment 4
350 4
9x 4
216 4
d- 4
313 4
bye 4
temporary 4
prayers 4
nor 4
San@@ 4
Mary 4
instructions 4
cry 4
vital 4
exposed 4
shi@@ 4
task 4
gri@@ 4
gro@@ 4
unable 4
Ca@@ 4
Pro@@ 4
documentation 4
Friday 4
simul@@ 4
Dr. 4
yp@@ 4
invisibility 4
voices 4
TEEB 4
sters 4
Lord 4
cing 4
biodiversity 4
im 4
collected 4
iled 4
startling 4
Amazon 4
rainforests 4
effectively 4
degradation 4
asset 4
ecosystem 4
insect 4
fruit 4
output 4
ree@@ 4
era 4
goods 4
restore 4
clone 4
calculation 4
corporations 4
externalities 4
fre@@ 4
WA@@ 4
bly 4
placed 4
timber 4
marketplace 4
reflected 4
2.@@ 4
Institute 4
protected 4
globe 4
dots 4
hood 4
selecting 4
negoti@@ 4
ethical 4
trigger 4
realism 4
capturing 4
composed 4
des@@ 4
trip 4
arctan 4
origin 4
stronger 4
1.@@ 4
13@@ 4
consumer 4
levels 4
camp@@ 4
Life 4
grand 4
utili@@ 4
edit 4
yourselves 4
sand 4
patterns 4
ology 4
Nile 4
eastern 4
Egyptian 4
ai@@ 4
flood 4
east 4
randomly 4
blin@@ 4
NASA 4
dense 4
puts 4
sli@@ 4
cleaning 4
plastic 4
Meanwhile 4
sand@@ 4
anger 4
suppress 4
writer 4
magazine 4
Ex@@ 4
killer 4
Look 4
ool 4
meter 4
employed 4
bird 4
30,000 4
Ste@@ 4
ou@@ 4
lit 4
lighting 4
clean 4
Subtitles 4
submit 4
slammed 4
footage 4
tremendous 4
date 4
crap 4
National 4
250 4
stadium 4
ets 4
proved 4
orbit 4
rocks 4
forests 4
soul 4
crossed 4
stamp 4
my@@ 4
poverty 4
ue 4
apologize 4
F 4
toughest 4
champion 4
lic 4
fate 4
believes 4
Bush 4
pollution 4
empire 4
puppets 4
agribusiness 4
planting 4
intelligent 4
locavore 4
farms 4
aside 4
slide 4
brands 4
Florida 4
salad 4
broccoli 4
filling 4
spending 4
Congress 4
cooked 4
cra@@ 4
fed 4
tically 4
den 4
leading 4
thinks 4
reduction 4
pound 4
heavy 4
gre@@ 4
advocating 4
marks 4
biologists 4
fiber 4
differ 4
pic@@ 4
poly@@ 4
explained 4
enable 4
stress 4
behaviors 4
scytodes 4
hunting 4
bal@@ 4
stic 4
xi@@ 4
tractor 4
kinda 4
don@@ 4
135 4
ple@@ 4
mentary 4
DRC 4
gener@@ 4
Ad@@ 4
preventable 4
prostate 4
99 4
2001 4
vol@@ 4
revenue 4
homeless 4
architect 4
homes 4
teen 4
tal@@ 4
vacant 4
plan@@ 4
petition 4
end@@ 4
gardening 4
stra@@ 4
shelter 4
gangsta 4
IT 4
CROW 4
&apos;all 4
Yuki 4
Neos 4
destwoyed 4
destwoy 4
ll@@ 4
Gu@@ 4
AY 4
SO@@ 4
DO@@ 4
LO@@ 4
HlM 4
monster 4
cheaper 4
Snarf 4
west 4
eling 4
duh 4
trading 4
existed 4
Ah 4
alling 4
mask 4
whe@@ 4
me-- 4
Ra@@ 4
phrase 4
continu@@ 4
circuit 4
farming 4
pressed 4
metaphor 4
manager 4
civili@@ 4
lodestones 4
Fer@@ 4
convention 4
bars 4
magnesium 4
electrostatics 4
t-- 4
solving 4
edu@@ 4
ja@@ 4
apples 4
Di@@ 4
forbid 4
pack 4
insight 4
vessels 4
destination 4
guaranteed 4
Yaaaay 4
Orange 4
groans 4
-Yeah 4
-Cut 4
bab@@ 4
stayed 4
hmm 4
succeed 4
December 4
criminal 4
determine 4
independent 4
Congressmen 4
wholes 4
interpre@@ 4
graphics 4
expressing 4
deeply 4
writers 4
enabled 4
continuing 4
postcards 4
anonymously 4
blog 4
collection 4
deepest 4
ending 4
declare 4
Ri@@ 4
superpowers 4
uni@@ 4
pres@@ 4
facial 4
mimicking 4
cies 4
chocolate 4
regarded 4
compe@@ 4
waves 4
Nan 4
oured 4
gold 4
Gates 4
correctly 4
ladies 4
Block 4
down@@ 4
liters 4
memorize 4
0@@ 4
occurred 4
attached 4
hat 4
vaginas 4
men@@ 4
aging 4
sang 4
rising 4
regime 4
scriptures 4
Jerusalem 4
Iranians 4
pled 4
conf@@ 4
algae 4
consumes 4
followed 4
permanent 4
believed 4
shocks 4
54 4
petroleum 4
140 4
EROEl 4
breakfast 4
projected 4
doubles 4
GDP 4
topsoil 4
fertilisers 4
48 4
ancestors 4
weekend 4
robots 4
slate 4
separated 4
Testpilot 4
privacy 4
existential 4
Afghans 4
tours 4
aid 4
optimism 4
General 4
poli@@ 4
locked 4
signal 4
saddest 4
inevitable 4
Libya 4
embracing 4
projection 4
climb 4
ens 4
Xu 4
recalling 4
zoom 4
freezing 4
tape 4
freeways 4
y. 4
Gore 4
ir 4
FlCA 4
taxes 4
alities 4
lemon 4
clarity 4
threshold 4
sinners 4
microblog 4
Cross 4
aroused 4
Hu@@ 4
spoke 4
Nebraska 4
breaker 4
elector 4
drastic 4
traits 4
workplace 4
colleagues 4
uprising 4
external 4
Ed 4
primes 4
Pascal 4
rocket 4
sexually 4
antidepressants 4
developmental 4
diagnosed 4
autism 4
suffered 4
unusual 4
Best 4
Buy 4
plankton 4
translator 4
motivate 4
cognitive 4
deceive 4
integer 4
0.75x 4
Koreans 4
Korean 4
und@@ 3
ressed 3
waking 3
predi@@ 3
ct@@ 3
quarters 3
tricks 3
Da@@ 3
inst@@ 3
inch 3
collapsed 3
trauma 3
ult 3
anes@@ 3
breaking 3
hurt 3
rub@@ 3
drove 3
amongst 3
flash@@ 3
night@@ 3
os 3
Ru@@ 3
clarify 3
sign@@ 3
quizzes 3
pace 3
courses 3
ley@@ 3
scroll 3
16@@ 3
meantime 3
offering 3
professionals 3
simplified 3
rational 3
14@@ 3
cancel 3
constraints 3
applying 3
frontier 3
rig@@ 3
unexplored 3
Ne@@ 3
87 3
kilometers 3
pitch 3
accelerate 3
sensors 3
inherently 3
ceiling 3
serve 3
posi@@ 3
reflective 3
markers 3
commands 3
athlete 3
bran@@ 3
mathematics 3
dynamics 3
balance 3
straightforward 3
balanced 3
include 3
unlike 3
tasks 3
performing 3
discover 3
exploit 3
clever 3
breath 3
diver 3
vaulter 3
rip 3
landing 3
fin@@ 3
modify 3
seemingly 3
rac@@ 3
apped 3
apple 3
calculations 3
flies 3
carries 3
collective 3
bun@@ 3
gee 3
capabilities 3
sensor 3
initially 3
develop 3
ind 3
creations 3
improve 3
curtain 3
Fl@@ 3
ach@@ 3
Fe@@ 3
globalization 3
inequality 3
labor 3
relations 3
Sou@@ 3
cloud 3
spectacular 3
tur@@ 3
privilege 3
intercept 3
technique 3
introdu@@ 3
ink 3
discussions 3
ert 3
returning 3
HKD 3
assignment 3
proposed 3
remains 3
work@@ 3
shops 3
reflection 3
lessness 3
alism 3
reali@@ 3
alistic 3
brothers 3
clothing 3
purchase 3
aiming 3
patience 3
supermarkets 3
campus 3
sively 3
directed 3
geable 3
advice 3
fulfilled 3
requirements 3
fits 3
elderly 3
vy 3
suggestion 3
air@@ 3
improving 3
implies 3
influ@@ 3
connections 3
philosop@@ 3
ner@@ 3
Ki@@ 3
rous 3
66@@ 3
31 3
tonight 3
lonely 3
maker 3
dre@@ 3
Rom@@ 3
gum 3
balls 3
Ab@@ 3
pop@@ 3
tries 3
wash 3
famous 3
shirts 3
shell 3
freely 3
mission 3
pilot 3
rockets 3
flash 3
Cardboard 3
Challenge 3
launching 3
ard@@ 3
kitchens 3
celebrate 3
narrative 3
compelling 3
ABC 3
considered 3
earning 3
set@@ 3
Ap@@ 3
passionate 3
Gayle 3
collapse 3
IMF 3
lady 3
sa 3
sending 3
boys 3
hardly 3
automatically 3
ases 3
misleading 3
hopes 3
finance 3
ki@@ 3
noted 3
trap 3
Department 3
han@@ 3
cash 3
assets 3
contracts 3
coll@@ 3
.org 3
wal@@ 3
acy 3
oftentimes 3
elev@@ 3
creators 3
shaped 3
survived 3
dignity 3
intact 3
complained 3
War 3
veteran 3
terrified 3
bright 3
McDonald 3
estimated 3
contribu@@ 3
buys 3
lessons 3
optimistic 3
forgetting 3
argu@@ 3
holi@@ 3
Dis@@ 3
excitement 3
basket 3
anno@@ 3
bli@@ 3
thin 3
ori@@ 3
domestic 3
documented 3
rap@@ 3
mode 3
safe@@ 3
ra 3
successfully 3
comedy 3
apparently 3
bitter 3
realization 3
grim 3
theater 3
headline 3
scary 3
contagious 3
split 3
chances 3
Har@@ 3
supposedly 3
experiencing 3
handsome 3
secretly 3
enti@@ 3
Can 3
mon 3
murder 3
prison 3
discuss 3
ong@@ 3
enemy 3
thought@@ 3
sees 3
star@@ 3
existence 3
gger 3
questioning 3
Socrates 3
learns 3
fo@@ 3
logically 3
compromising 3
atom 3
carbons 3
CH 3
encounter 3
superimpose 3
of@@ 3
ome@@ 3
stere@@ 3
relative 3
ach 3
attach 3
fli@@ 3
aspects 3
style 3
pen 3
textbooks 3
sy@@ 3
kin@@ 3
emer@@ 3
diabetic 3
agreed 3
new@@ 3
ly@@ 3
path@@ 3
gained 3
parti@@ 3
busy 3
overweight 3
backwards 3
berg 3
ils 3
home@@ 3
cellular 3
machinery 3
subtle 3
bruise 3
ushing 3
elsewhere 3
improves 3
excess 3
blaming 3
luxury 3
asks 3
physi@@ 3
hypothe@@ 3
wherever 3
hormones 3
diets 3
gradient 3
descent 3
del@@ 3
algorithm 3
hos@@ 3
ensure 3
pe 3
Vi@@ 3
pollinators 3
opens 3
fru@@ 3
rarely 3
friendly 3
but@@ 3
defining 3
constructed 3
instruc@@ 3
dependencies 3
potentially 3
viation 3
conditional 3
emotion 3
visual 3
imagery 3
ran@@ 3
Prize 3
dictators 3
rul@@ 3
graffiti 3
canvas 3
exp@@ 3
fra@@ 3
med 3
confuse 3
destroying 3
inches 3
hall 3
referring 3
Palestinians 3
coo@@ 3
accepted 3
Na@@ 3
crowded 3
silence 3
strated 3
posting 3
Women 3
Providencia 3
arrested 3
bridge 3
torn 3
discussing 3
curiosity 3
armor 3
Kibera 3
reveal 3
signed 3
spon@@ 3
MO@@ 3
ele@@ 3
ell@@ 3
voted 3
bidding 3
by@@ 3
thern 3
bury 3
accident 3
programmer 3
management 3
tain 3
allo@@ 3
chunk 3
10th 3
stops 3
adventure 3
caves 3
programmers 3
INTERNATlONAL 3
UN@@ 3
CA@@ 3
ES@@ 3
CON@@ 3
TS 3
EA@@ 3
MA@@ 3
Rl@@ 3
OU@@ 3
EE@@ 3
ME 3
differentiate 3
dynam@@ 3
K 3
potency 3
interactions 3
ref@@ 3
Arctic 3
mel@@ 3
ser@@ 3
conversation 3
Italian 3
diving 3
itate 3
sunscreen 3
advance 3
logist 3
wipe 3
remote 3
ger@@ 3
Danish 3
Council 3
Fre@@ 3
ged 3
ula 3
noisy 3
cardiovascular 3
pleasurable 3
iness 3
mou@@ 3
April 3
manage 3
tumor 3
mation 3
stroking 3
stroke 3
torch 3
aspi@@ 3
prof@@ 3
dy@@ 3
onic 3
illu@@ 3
ligh@@ 3
fla@@ 3
adjacent 3
frankly 3
quiet 3
despair 3
IPCC 3
annual 3
15,000 3
variety 3
isoprene 3
Chamber 3
bus@@ 3
boxes 3
calculating 3
wat@@ 3
hun@@ 3
plane 3
measurements 3
journ@@ 3
bar@@ 3
musicians 3
band 3
ile 3
assign 3
reed 3
tension 3
wea@@ 3
Moon 3
tation 3
collabor@@ 3
challenged 3
clocks 3
noon 3
biased 3
magnifying 3
sm@@ 3
sight 3
JL 3
instant 3
needless 3
remembered 3
scent 3
oning 3
ost 3
crowding 3
etc 3
cky 3
artificial 3
command 3
reset 3
ticks 3
spe@@ 3
ct 3
bug 3
exponential 3
offspring 3
slower 3
artist 3
ky 3
bubbles 3
propaganda 3
proper 3
Christian 3
mos@@ 3
demo@@ 3
neighbor 3
historic 3
independence 3
Israel 3
loves 3
order@@ 3
open@@ 3
ial 3
secu@@ 3
ful@@ 3
cruel 3
whi@@ 3
teams 3
judged 3
Albert 3
cure 3
guided 3
anxiety 3
d.school 3
analy@@ 3
tical 3
imaging 3
disappointed 3
ric 3
sedated 3
classes 3
irate 3
matic 3
needing 3
cared 3
scan 3
hospitals 3
energy-- 3
bounce 3
comb@@ 3
with@@ 3
mag@@ 3
knocked 3
us-- 3
slowly 3
collision 3
tire 3
speaks 3
absolute 3
grandparents 3
sadly 3
Kuwait 3
hard@@ 3
speaker 3
istic 3
Age 3
Greek 3
equ@@ 3
medi@@ 3
fortunately 3
exploded 3
tests 3
Great 3
genetics 3
abroad 3
N 3
Kenyan 3
smoke 3
award 3
continent 3
140,000 3
encountered 3
highways 3
boo@@ 3
Th@@ 3
wasting 3
gallons 3
whoever 3
savings 3
stock 3
portfolio 3
exempt 3
mos 3
una 3
2A 3
81 3
actuall@@ 3
hardest 3
simplifying 3
messy 3
27@@ 3
270 3
factored 3
guests 3
bles 3
eigh@@ 3
unseen 3
tent 3
mind@@ 3
match 3
grief 3
tight 3
responded 3
rooms 3
scene 3
scenes 3
described 3
endless 3
surely 3
powerless 3
fleeting 3
dar@@ 3
disc@@ 3
plans 3
reminded 3
Daniel 3
James 3
ca 3
remain 3
He 3
holy 3
convince 3
je@@ 3
bland 3
alien 3
gram 3
satisfied 3
Circle 3
Drawy 3
ThingyBobber 3
wings 3
offs 3
animations 3
Really 3
Cool 3
answered 3
compli@@ 3
ster@@ 3
fabric 3
ecosystems 3
Amazonas 3
Pl@@ 3
cycle 3
Par@@ 3
incentives 3
reg@@ 3
ulation 3
depletion 3
fol@@ 3
ecological 3
infrastructure 3
gers 3
biomass 3
750 3
sustain 3
Desert 3
8,000 3
subsidies 3
shrimp 3
productive 3
salt 3
Project 3
begun 3
dged 3
199@@ 3
River 3
deaths 3
sectors 3
disclose 3
P 3
PUMA 3
analysts 3
consumers 3
Char@@ 3
payments 3
European 3
Union 3
thankfully 3
versa 3
scheme 3
reduced 3
coral 3
reefs 3
eighth 3
mixed 3
twist 3
tains 3
relate 3
fulfill 3
ske@@ 3
inverse 3
Jer@@ 3
peri@@ 3
113.9 3
fired 3
navig@@ 3
ft. 3
environmental 3
inci@@ 3
boat 3
420 3
gear 3
efficiency 3
nest 3
digitized 3
paperwork 3
guest 3
beds 3
1,500 3
editing 3
expres@@ 3
false 3
logists 3
circles 3
buried 3
haystack 3
detail 3
slight 3
coring 3
occupation 3
thick 3
mud 3
tery 3
1984 3
wound 3
coastal 3
rapidly 3
graphic 3
sacred 3
affecting 3
pH 3
bag 3
outrage 3
plumes 3
catastrophe 3
concentrated 3
bon 3
tering 3
Sigh 3
whales 3
concentrate 3
gged 3
dirty 3
stre@@ 3
southern 3
bombed 3
boats 3
boom 3
booming 3
cast 3
acknowledge 3
gross 3
slo@@ 3
vessel 3
annoying 3
tickets 3
ass 3
Act 3
mood 3
ken 3
legi@@ 3
theme 3
drilling 3
ills 3
slavery 3
subtitle 3
hearing 3
subtitles 3
keyboard 3
MP@@ 3
accessible 3
bul@@ 3
Peak 3
Pen@@ 3
asteroids 3
Arizona 3
yards 3
bomb 3
Tunguska 3
panic 3
mil@@ 3
centuries 3
aware 3
devoted 3
heading 3
yed 3
ep 3
cle@@ 3
comet 3
BAM 3
vel@@ 3
sty 3
da 3
travels 3
humble 3
Asia 3
Russia 3
Wa@@ 3
hated 3
respec@@ 3
cted 3
thed 3
nylon 3
threats 3
dare 3
schoolhouse 3
reform 3
attendance 3
ratios 3
def@@ 3
wondered 3
risks 3
hiding 3
fifth 3
far@@ 3
pr@@ 3
anti@@ 3
Ann 3
Cooper 3
prevalent 3
pal@@ 3
carrot 3
promote 3
expen@@ 3
industri@@ 3
pig 3
eats 3
shipping 3
20s 3
Cla@@ 3
Bir@@ 3
chains 3
1970s 3
fabulous 3
ingredient 3
ez 3
canned 3
convenience 3
steak 3
vegetable 3
soy 3
collaboration 3
gardens 3
powers 3
yogurt 3
kin 3
meal 3
contents 3
serving 3
pose 3
core 3
beef 3
liber@@ 3
app 3
download 3
manufacture 3
fabri@@ 3
crab 3
ious 3
poses 3
radii 3
ament 3
&apos;clock 3
cement 3
ampullate 3
amino 3
alanine 3
portion 3
dramatically 3
gene 3
acid 3
maximum 3
exten@@ 3
evolution@@ 3
draglines 3
repli@@ 3
ages 3
applications 3
method 3
hon@@ 3
comple@@ 3
Poly@@ 3
gon 3
Congo 3
76 3
Damien 3
dently 3
golf 3
faith 3
countless 3
load 3
rever@@ 3
R 3
shorter 3
span 3
Mon@@ 3
communication 3
chunks 3
symbols 3
trical 3
unknown 3
hug 3
fingerprints 3
contribution 3
ash 3
woo@@ 3
Kar@@ 3
cultures 3
igh@@ 3
tonnes 3
3,@@ 3
,@@ 3
removed 3
reducing 3
perception 3
lest 3
IKEA 3
god 3
lage 3
arms 3
opportunities 3
TE@@ 3
represent 3
Li@@ 3
planted 3
strip 3
Grounds 3
remove 3
warrant 3
owns 3
26 3
em@@ 3
ashamed 3
Hell 3
farmer 3
ades 3
script 3
AT 3
VE 3
WE 3
&apos;T 3
OUN@@ 3
ON 3
CARD 3
LY 3
flawless 3
bout 3
wight 3
harm@@ 3
settle 3
ists 3
GU@@ 3
OUT 3
JUNK 3
WARRlOR 3
Stardust 3
STAR@@ 3
girlfriend 3
elly 3
kick 3
Duel 3
Monsters 3
WHO 3
EVER 3
dragons 3
snow 3
Crimson 3
nooooo 3
lame 3
Mr. 3
Michael 3
hom@@ 3
player 3
orphan 3
spoilers 3
Girls 3
ii@@ 3
Nope 3
water@@ 3
hero 3
that@@ 3
End 3
firmly 3
forth 3
cake 3
learner 3
explo@@ 3
wards 3
beat 3
ooh 3
Um 3
et 3
recycled 3
burned 3
scar@@ 3
romance 3
Punch 3
ash@@ 3
electrostatic 3
rel@@ 3
New@@ 3
mysterious 3
magnetized 3
tion-- 3
bit@@ 3
proton 3
operate 3
spins 3
oni@@ 3
dentistry 3
dentists 3
dentures 3
primary 3
communicating 3
They 3
recognized 3
abstract 3
heads 3
corner 3
Schwartz 3
Wired 3
target 3
insurance 3
acceptable 3
ordinary 3
ina@@ 3
Cost 3
um@@ 3
-Oh 3
-What 3
Pear 3
nya 3
-I 3
Laughs 3
sno@@ 3
governments 3
rebels 3
brother 3
bush 3
fought 3
LRA 3
court 3
indicted 3
republican 3
Fore@@ 3
four@@ 3
do-- 3
economies 3
angles 3
chi@@ 3
Media 3
typed 3
acted 3
resolution 3
snap 3
microphone 3
meaningful 3
Frank 3
spreading 3
pays 3
pocket 3
Sunday 3
ing@@ 3
emails 3
recording 3
FW 3
interdependence 3
dependence 3
fiction 3
1950s 3
ound 3
biologically 3
arily 3
Darwin 3
electric 3
neural 3
processing 3
enhancing 3
dist@@ 3
views 3
logical 3
divine 3
forty 3
transmitted 3
robe 3
flag 3
ess 3
pair 3
tied 3
owner 3
Wait 3
bow 3
Beatboxing 3
singing 3
organ 3
Pink 3
Floyd 3
leaves 3
Japan 3
PV 3
nRT 3
milliliters 3
0.081 3
separ@@ 3
floating 3
Eve 3
vagina 3
conquered 3
organized 3
stomach 3
entertainment 3
shattered 3
Philip 3
wee@@ 3
fields 3
quietly 3
heal@@ 3
wl 3
washed 3
lies 3
1879 3
painting 3
Nebuchadnezzar 3
Persia 3
ions 3
X@@ 3
19th 3
reliable 3
Jehovah 3
em 3
s. 3
ty@@ 3
stands 3
switching 3
quantities 3
prove 3
multiplying 3
ambi@@ 3
geologists 3
ret@@ 3
seas 3
pois@@ 3
trillions 3
organ@@ 3
aver@@ 3
imported 3
1973 3
oilfields 3
derived 3
Pe@@ 3
1.6 3
ig@@ 3
shale 3
decreasing 3
depleted 3
break@@ 3
Un@@ 3
2030 3
hot@@ 3
2050 3
restricted 3
transporting 3
Bi@@ 3
phot@@ 3
mal 3
iring 3
doubling 3
pon@@ 3
72 3
sation 3
metals 3
irrigation 3
renewable 3
placing 3
ado@@ 3
econom@@ 3
steam 3
lasers 3
mot@@ 3
avoid 3
ore 3
audio 3
robotics 3
ancestor 3
primitive 3
resembles 3
mer@@ 3
shepherds 3
tabs 3
Kosovo 3
Qaeda 3
nearest 3
clinic 3
corruption 3
considerably 3
Mullah 3
Mustafa 3
insurgency 3
troop 3
deployment 3
astonishing 3
chest 3
structures 3
embassy 3
thir@@ 3
humility 3
Bosni@@ 3
matching 3
terrorism 3
blizzard 3
Rory 3
tempted 3
credibility 3
rejected 3
Phyilis 3
authority 3
intend 3
humidity 3
desertifying 3
parks 3
lately 3
predators 3
cli@@ 3
History 3
adap@@ 3
bleep 3
emo@@ 3
actors 3
bed@@ 3
hippocampus 3
sely 3
laser 3
channelrhodopsin 3
Columbia 3
highway 3
Side 3
Embarcadero 3
bor@@ 3
66 3
crank 3
Moscow 3
soft 3
younger 3
Melcher 3
40@@ 3
surplus 3
67 3
arrow 3
algebra 3
lawyers 3
85 3
detection 3
schizophrenia 3
cubed 3
squeeze 3
high@@ 3
er-- 3
penalty 3
Son 3
sins 3
2,300 3
cents 3
geous 3
recipe 3
dropping 3
Shanghai 3
Susan 3
Boyle 3
sales 3
portal 3
selected 3
elders 3
outcry 3
diag@@ 3
dropped 3
Vic 3
Gundotra 3
60@@ 3
certificate 3
1986 3
cooker 3
democracy 3
Election 3
majorities 3
district 3
arre@@ 3
McCain 3
congressional 3
capita 3
baba 3
speech 3
kittens 3
birthright 3
critici@@ 3
cyborgs 3
cyborg 3
psychological 3
wine 3
September 3
Harvard 3
BRlC 3
SlCK 3
Chinanet 3
ou 3
Ministry 3
Shakespeare 3
regard 3
fac@@ 3
squiggly 3
recogni@@ 3
mat 3
mating 3
menstru@@ 3
thinkers 3
adulterous 3
marry 3
casual 3
serotonin 3
commit 3
origin@@ 3
rickshaw 3
dive 3
neurological 3
EEG 3
Pants 3
Subway 3
Ride 3
January 3
filmed 3
underwear 3
managers 3
transfer 3
afternoon 3
sperm 3
jellies 3
ceived 3
Zacarias 3
someday 3
Ticketmaster 3
OCR 3
Hacker 3
translators 3
10,900 3
Sabbath 3
JS 3
picking 3
bibles 3
psychology 3
stoning 3
adulterer 3
shalt 3
agnostic 3
homosexuality 3
irrational 3
opera 3
Announcer 3
PRlSM 3
spying 3
amendment 3
0.25x 3
times. 3
66.@@ 3
floors 3
anticip@@ 2
deck 2
itions 2
zon@@ 2
headphones 2
practic@@ 2
visiting 2
kno@@ 2
remarkably 2
turing 2
techniques 2
initiation 2
mped 2
inc@@ 2
fe 2
elbow 2
inf@@ 2
collapsing 2
lung 2
ambulance 2
sidewalk 2
remembering 2
woke 2
envelo@@ 2
instep 2
arch 2
Sam@@ 2
owned 2
restored 2
bile 2
backs 2
surge@@ 2
closing 2
surgical 2
softwares 2
seniors 2
prefer 2
une 2
seg@@ 2
webca@@ 2
.edu 2
interface 2
Spring 2
selection 2
pops 2
Pa@@ 2
ste 2
chose 2
volunteers 2
titude 2
bearing 2
inspire 2
interviews 2
stated 2
constraint 2
fundamentally 2
goals 2
navigate 2
exploring 2
farthest 2
consists 2
labeled 2
corresponding 2
athletic 2
quadrocopters 2
yaw 2
orientation 2
battery 2
wireless 2
radi@@ 2
agile 2
estimation 2
sends 2
bulk 2
analyze 2
hover 2
stabili@@ 2
just@@ 2
gment 2
acroba@@ 2
maneuvers 2
balancing 2
dominated 2
negli@@ 2
gible 2
inju@@ 2
redundancy 2
pairs 2
architec@@ 2
tures 2
twi@@ 2
triple 2
ution 2
blindly 2
observe 2
shes 2
repeated 2
executed 2
ket 2
thrown 2
tory 2
collec@@ 2
cooper@@ 2
extended 2
gesture 2
gaming 2
inputs 2
raw 2
gestures 2
virtual 2
behaving 2
visc@@ 2
fluid 2
timate 2
cap@@ 2
demonstration 2
innovations 2
wiz@@ 2
aro 2
ario 2
ini 2
hin 2
Mark 2
ler 2
Rob@@ 2
itz 2
dest@@ 2
fundable 2
fragile 2
place@@ 2
violation 2
interconnected 2
Sh@@ 2
tribe 2
situated 2
amp@@ 2
spi@@ 2
pointed 2
chasing 2
Mom 2
stal@@ 2
grap@@ 2
efruit 2
hail 2
blocking 2
tactile 2
blowing 2
wheat 2
greens 2
light@@ 2
galaxy 2
well@@ 2
five-- 2
coordin@@ 2
ate@@ 2
over-- 2
Wong 2
ok 2
dialogu@@ 2
Kids 2
worthwhile 2
governed 2
bish 2
alis@@ 2
pen@@ 2
9,000 2
homework 2
Oxfam 2
articles 2
sweat@@ 2
brandy 2
dolls 2
classmate 2
wealthy 2
power@@ 2
mer 2
exams 2
enjoying 2
worth@@ 2
concer@@ 2
adolescents 2
recall 2
striving 2
gg@@ 2
nee@@ 2
hou@@ 2
eff@@ 2
deny 2
feeding 2
motivating 2
popularity 2
programme 2
jam 2
tunne@@ 2
purcha@@ 2
monop@@ 2
chan@@ 2
vie@@ 2
wee 2
youngster 2
ures 2
compar@@ 2
universities 2
features 2
verify 2
sour@@ 2
cles 2
perseverance 2
pursu@@ 2
pursuing 2
cabin 2
swe@@ 2
presence 2
dissembled 2
retired 2
ssive 2
unique 2
impro@@ 2
vement 2
advancement 2
hob@@ 2
reflec@@ 2
discussion 2
fav@@ 2
sector 2
rut 2
foot@@ 2
Morgan 2
lock 2
subtract 2
forgotten 2
memorable 2
hiking 2
adven@@ 2
badly 2
atch 2
1,@@ 2
deprived 2
abor@@ 2
schol@@ 2
aming 2
hook 2
aire 2
twe@@ 2
eting 2
dd@@ 2
Spain 2
tax@@ 2
airport 2
Black 2
jo 2
fan@@ 2
ble@@ 2
ketball 2
cle 2
sticks 2
ac 2
Ezra 2
pin@@ 2
Beau 2
scanner 2
deci@@ 2
pher@@ 2
tter 2
Fun 2
Pass 2
entrepreneurship 2
advo@@ 2
innovators 2
foundation 2
yard 2
flames 2
shooting 2
anniversary 2
mob 2
inviting 2
fund@@ 2
ement 2
victim 2
resilience 2
Maryland 2
graduated 2
rent 2
Rwanda 2
consul@@ 2
tancy 2
nation@@ 2
peaceful 2
earned 2
excellent 2
cheese 2
interview 2
zo@@ 2
Sar@@ 2
oils 2
Her@@ 2
file 2
vas@@ 2
microfinance 2
sufficiency 2
amb@@ 2
networks 2
ris@@ 2
iri@@ 2
experimenting 2
terrific 2
lofty 2
unle@@ 2
ashing 2
employment 2
maternal 2
Econom@@ 2
For@@ 2
competi@@ 2
veness 2
eliminated 2
gap 2
reporters 2
pause 2
pione@@ 2
emul@@ 2
dismissed 2
excep@@ 2
shop@@ 2
lay@@ 2
bre@@ 2
mps 2
tragedies 2
atings 2
escap@@ 2
lim@@ 2
itations 2
low@@ 2
overseas 2
hiring 2
deploy 2
dress 2
Murray 2
bastar@@ 2
mid 2
cri@@ 2
cumul@@ 2
b. 2
deb@@ 2
dom 2
numbing 2
sol@@ 2
miserable 2
happiest 2
ideally 2
lab@@ 2
pies 2
devastating 2
journals 2
lined 2
smiled 2
goodbye 2
pile 2
glad 2
guard 2
tre@@ 2
Davis 2
ford 2
Ber@@ 2
statu@@ 2
avoided 2
starring 2
merely 2
satisfaction 2
comparison 2
theoretically 2
murder@@ 2
drinking 2
Viagra 2
ouse 2
inclu@@ 2
itation 2
jail 2
joint 2
institution 2
weigh 2
strengths 2
cockta@@ 2
Pri@@ 2
punk 2
bud@@ 2
ole 2
In 2
foun@@ 2
dations 2
ethics 2
rup@@ 2
convict 2
wr@@ 2
disagree 2
admiration 2
atures 2
amin@@ 2
where@@ 2
mus@@ 2
anxious 2
metaphysi@@ 2
Ni@@ 2
dem@@ 2
chlor@@ 2
cyclopentane 2
dedness 2
superimposable 2
le-- 2
bond 2
nam@@ 2
enantiomer 2
isomer 2
isomers 2
constitu@@ 2
constituents 2
clari@@ 2
conformation 2
swap 2
mations 2
symme@@ 2
ym@@ 2
metric 2
ses@@ 2
hyper 2
skip 2
downsides 2
scrib@@ 2
inclined 2
Joh@@ 2
Hospital 2
amputation 2
treated 2
crea@@ 2
stood 2
contempt 2
tate 2
justified 2
jud@@ 2
hubris 2
immune 2
therap@@ 2
melanoma 2
stand@@ 2
kills 2
assum@@ 2
ologic 2
settled 2
dro@@ 2
hor@@ 2
compatible 2
radically 2
weir@@ 2
failing 2
underlying 2
mid@@ 2
ign 2
devi@@ 2
consi@@ 2
safest 2
distinction 2
impli@@ 2
inadvertently 2
leg 2
hurts 2
discolored 2
infection 2
bruises 2
lishment 2
mas@@ 2
painkillers 2
ignoring 2
shins 2
holders 2
bruised 2
threatening 2
sugges@@ 2
conversely 2
rog@@ 2
hypothesis 2
glucose 2
ological 2
refined 2
starches 2
restricting 2
scientifically 2
beliefs 2
devote 2
humbled 2
recruited 2
consum@@ 2
mul@@ 2
discipl@@ 2
skeptical 2
talented 2
briefly 2
themes 2
mes 2
nuanced 2
molecular 2
isms 2
insights 2
ception 2
delivered 2
updating 2
derivative 2
connecting 2
requests 2
custom 2
compact 2
breaks 2
ooling 2
towers 2
pump 2
glimpse 2
presentations 2
pollination 2
ming@@ 2
lapse 2
fills 2
vani@@ 2
Collapse 2
mankind 2
advisers 2
reward 2
eyed 2
Taylor 2
butterfly 2
expert 2
replied 2
mysti@@ 2
drin@@ 2
seeds 2
pollin@@ 2
Bayesian 2
representations 2
seman@@ 2
SAT 2
sco@@ 2
recommendation 2
actly 2
framework 2
carica@@ 2
brighter 2
highlight 2
representation 2
nodes 2
previously 2
ditional 2
Probability 2
difficulty 2
unconditional 2
C. 2
entries 2
SA 2
mate 2
chri@@ 2
Divi@@ 2
Brain 2
profoundly 2
hemisphere 2
JR 2
fucked 2
melting 2
Champs 2
Elysees 2
riots 2
glued 2
tening 2
throwing 2
oto@@ 2
attac@@ 2
thugs 2
quet 2
posters 2
len 2
glue 2
Israelis 2
rhetoric 2
taxi 2
commitment 2
Ham@@ 2
nap 2
ladders 2
20,000 2
walks 2
Palestine 2
vers 2
tag 2
pee 2
demon@@ 2
museums 2
pill@@ 2
tribute 2
listened 2
continents 2
Rio 2
deta@@ 2
chop@@ 2
contact 2
NGO 2
NGOs 2
belongs 2
lords 2
symbolic 2
hill 2
helicopter 2
anonymous 2
dan 2
eria 2
Kenya 2
Monrovia 2
raped 2
slums 2
leaking 2
authorization 2
dos 2
cker 2
trailer 2
scope 2
regularly 2
cultural 2
sors 2
Beach 2
minare@@ 2
wit@@ 2
originally 2
Italy 2
neutral 2
enables 2
presu@@ 2
category 2
drum 2
participating 2
upload 2
projec@@ 2
t.@@ 2
uncommon 2
malloc 2
cator 2
bytes 2
strictly 2
six@@ 2
11th 2
sal 2
GNU 2
appreciated 2
LANGUAGE 2
Ul@@ 2
TA@@ 2
LE 2
FOR 2
TlON 2
ER@@ 2
GA@@ 2
ES 2
KlNG 2
EN@@ 2
DS 2
songs 2
VE@@ 2
TlONS 2
RA@@ 2
Dl@@ 2
RO@@ 2
GS 2
Hl@@ 2
HA@@ 2
VlNG 2
GO@@ 2
definitions 2
pharmaco 2
concentration 2
answer@@ 2
exert 2
cep@@ 2
Brit@@ 2
Z 2
Olive 2
Garden 2
heritage 2
immerse 2
Ten 2
Commandments 2
Leviticus 2
shave 2
Moses 2
yn@@ 2
topi@@ 2
healthiest 2
health@@ 2
ily 2
boggling 2
exercise 2
med@@ 2
pet 2
mill 2
matologists 2
dou@@ 2
nut 2
properly 2
iPhones 2
gies 2
Safe@@ 2
helmet 2
helmets 2
biking 2
admit 2
ak@@ 2
authors 2
drunk 2
nant 2
lec@@ 2
cial 2
flight 2
cognition 2
Founding 2
Fathers 2
pressing 2
crun@@ 2
pediat@@ 2
thesi@@ 2
audi@@ 2
Pal@@ 2
inflam@@ 2
operation 2
recovered 2
persists 2
dancer 2
stret@@ 2
spra@@ 2
vial 2
wrap 2
lish 2
finger@@ 2
oulder 2
exc@@ 2
sensation 2
hardwired 2
ater@@ 2
vertically 2
spinal 2
cord 2
glial 2
struc@@ 2
tural 2
activated 2
wired 2
ushed 2
dish@@ 2
monitor 2
tic@@ 2
phs 2
modi@@ 2
rigorous 2
uncomfortable 2
intensive 2
psycho@@ 2
dency 2
smo@@ 2
Change 2
reviewed 2
viewers 2
PhD 2
ze@@ 2
21st 2
lengths 2
explosions 2
times@@ 2
integrations 2
dozens 2
joined 2
Malaysia 2
BA@@ 2
120 2
incl@@ 2
hire 2
ination 2
buil@@ 2
subsection 2
chapters 2
assessments 2
alists 2
readings 2
ricane 2
bead 2
sculpture 2
visible 2
tech 2
historical 2
clipboards 2
filled 2
string 2
pha@@ 2
visuali@@ 2
wer 2
flower 2
asses 2
scented 2
sunlight 2
beam 2
emitted 2
ells 2
genius 2
epiphany 2
Jinsop 2
Lee 2
motorbi@@ 2
designer 2
unclear 2
gathered 2
nood@@ 2
slu@@ 2
lur@@ 2
clubbing 2
respondents 2
hang 2
motorbike 2
explains 2
iron 2
spraying 2
enjoyable 2
toothbrush 2
keys 2
flute 2
clarinet 2
evalu@@ 2
incorpor@@ 2
usive 2
slider 2
thwest 2
thin@@ 2
popul@@ 2
this. 2
conditions 2
hopeless 2
dele@@ 2
tick 2
guessing 2
leveling 2
cting 2
sig@@ 2
migrate 2
Step 2
attribute 2
lope 2
carefully 2
nuns 2
sisters 2
domin@@ 2
antly 2
celebr@@ 2
ani 2
Babri 2
Masjid 2
Bab@@ 2
activi@@ 2
unrest 2
Rags 2
careful 2
sexuality 2
patriotic 2
manu@@ 2
pol@@ 2
treats 2
understands 2
OS 2
casts 2
tia 2
detailed 2
hesitate 2
Miss 2
Pop@@ 2
downtown 2
arrangement 2
safely 2
grant 2
recor@@ 2
intellectual 2
Ohio 2
sink 2
shoulders 2
clients 2
Black@@ 2
berries 2
exits 2
breakthrough 2
86 2
phobias 2
phobi@@ 2
ther 2
glove 2
cured 2
fears 2
familiarity 2
Dietz 2
GE 2
disap@@ 2
prototyping 2
scanned 2
painted 2
oper@@ 2
quanti@@ 2
tative 2
lump 2
jam@@ 2
IDE@@ 2
quit 2
yields 2
enthalp@@ 2
state@@ 2
itself-- 2
spontane@@ 2
ous@@ 2
spontaneously 2
thermodynamics 2
macro 2
ram 2
out-- 2
situations 2
this-- 2
more-- 2
rightw@@ 2
happen@@ 2
like-- 2
slow@@ 2
ly-- 2
teous 2
mping 2
configure 2
vey 2
rough 2
it-- 2
enough-- 2
knock 2
react 2
scaled 2
experimen@@ 2
gels 2
high-- 2
dominate 2
Kelvin 2
overwhelm 2
cts 2
formulas 2
quantity 2
princi@@ 2
ples 2
ently 2
statistic 2
bi 2
medic@@ 2
bal 2
unprecedented 2
dispu@@ 2
nevertheless 2
moderni@@ 2
empower 2
U.S 2
native 2
reject 2
tracks 2
barrier 2
fulfilling 2
rement 2
olden 2
Latin 2
Persian 2
Ger@@ 2
sia 2
instein 2
dysle@@ 2
Univer@@ 2
sities 2
circular 2
limbs 2
hind 2
limb 2
England 2
Award 2
shepherd 2
kerosene 2
lamp 2
damaged 2
diversity 2
dicate 2
succeeded 2
DARPA 2
Grand 2
nowhere 2
imaginable 2
omb@@ 2
stun@@ 2
Sebastian 2
accidents 2
prevented 2
gasoline 2
wore 2
tax. 2
referred 2
inheritance 2
deri@@ 2
milli@@ 2
on. 2
cher 2
scenario 2
exemp@@ 2
clu@@ 2
taxed 2
5,@@ 2
5.@@ 2
thoroughly 2
ton@@ 2
ence@@ 2
lo 2
Times 2
is-- 2
digits 2
expon@@ 2
th-- 2
memorized 2
negatives 2
288 2
checked 2
mod@@ 2
responders 2
scrip@@ 2
outw@@ 2
wardly 2
rene@@ 2
achieving 2
mere 2
ounded 2
wept 2
unfolded 2
ook 2
lementary 2
dawn 2
och@@ 2
run@@ 2
Sher@@ 2
ki 2
So@@ 2
ren 2
au 2
Anne 2
Mari@@ 2
ass@@ 2
steady 2
harm 2
karate 2
unconsci@@ 2
ood 2
precious 2
poin@@ 2
obligations 2
deserve 2
reflecting 2
shootings 2
hugged 2
tolerate 2
visited 2
stumble 2
heavenly 2
Charlotte 2
Jes@@ 2
grace 2
oline 2
His 2
buck 2
nitch 2
threatened 2
omer@@ 2
broadcast 2
proven 2
signifier 2
dol 2
talk@@ 2
throughs 2
speakers 2
tutorials 2
playground 2
mouse@@ 2
Mister 2
browse 2
Hot 2
Spot@@ 2
Top 2
Rec@@ 2
browsing 2
hh 2
gh 2
pendulum 2
charts 2
tized 2
Apple 2
scratch@@ 2
Ti@@ 2
Wow 2
coolest 2
mini@@ 2
inspiration 2
Stern 2
genes 2
scales 2
revelation 2
northeastern 2
winds 2
vapor 2
pit@@ 2
Basin 2
Argent@@ 2
ina 2
Gr@@ 2
currency 2
radar 2
belonged 2
fisheries 2
fish@@ 2
liveli@@ 2
dimensions 2
abund@@ 2
Saharan 2
boils 2
1,200 2
deposition 2
nur@@ 2
TR@@ 2
calculated 2
pollutants 2
Accounting 2
losses 2
accounts 2
knowle@@ 2
flooded 2
sensi@@ 2
ban 2
leadership 2
lever 2
Ze@@ 2
delighted 2
Ac@@ 2
tants 2
coalition 2
evaluation 2
certi@@ 2
inflation 2
declining 2
prices 2
flu@@ 2
acidi@@ 2
Plus 2
contributed 2
Mic@@ 2
targets 2
color@@ 2
tain@@ 2
brief 2
illusion 2
basics 2
alter@@ 2
distingu@@ 2
depth 2
aturated 2
borders 2
manipulated 2
locations 2
fes@@ 2
writ@@ 2
diagonal 2
approaches 2
shoots 2
odi@@ 2
asymptote 2
specifically 2
curves 2
sect 2
dividing 2
1000 2
nevermind 2
employee 2
Brendan 2
Netscape 2
1.0 2
short@@ 2
afterwards 2
ko 2
dering 2
application 2
king@@ 2
developers 2
loaded 2
OL 2
storage 2
pers 2
ase 2
Edited 2
Man@@ 2
hat@@ 2
vot@@ 2
wel 2
edited 2
worn 2
extraneous 2
multi@@ 2
functional 2
house@@ 2
furniture 2
ensive 2
reviews 2
Zagat 2
seas@@ 2
Egypto@@ 2
infrared 2
appears 2
pink 2
Egyptians 2
architecture 2
pyramids 2
indicated 2
shifted 2
locating 2
folded 2
baseball 2
lian 2
artz 2
jeweler 2
discoveries 2
founded 2
ashore 2
trau@@ 2
cks 2
eruption 2
habit@@ 2
marble 2
tness 2
rolled 2
soap 2
bubble 2
greatly 2
blowout 2
civilization 2
8.1 2
urchin 2
larva 2
.7 2
qua@@ 2
hur@@ 2
habitat 2
unbelievable 2
emptied 2
dumped 2
apocalyptic 2
shore 2
arri@@ 2
ama 2
gall@@ 2
ances 2
Congressman 2
submarine 2
confirmed 2
mix 2
xing 2
gills 2
swim 2
Willi@@ 2
recreational 2
calendar 2
cel@@ 2
bookings 2
eing 2
bottlen@@ 2
ose 2
dolphin 2
blo@@ 2
dolphins 2
xon 2
Val@@ 2
tuna 2
spawning 2
hic 2
avoiding 2
cloudy 2
turn@@ 2
breed 2
High 2
Gre@@ 2
hemispheric 2
redness 2
ear@@ 2
dispersants 2
Fi@@ 2
dia@@ 2
drag 2
nets 2
ample 2
colony 2
boomed 2
asper@@ 2
hal@@ 2
gence 2
BP 2
operated 2
illed 2
eg@@ 2
Thomas 2
defi@@ 2
unity 2
Gl@@ 2
ession 2
systematically 2
lobbyists 2
ulations 2
sl@@ 2
deaf 2
Vide@@ 2
oma@@ 2
rankings 2
dial@@ 2
tap 2
sync 2
Cold 2
Boulder 2
pea@@ 2
Yucatan 2
insul@@ 2
excav@@ 2
ashed 2
fires 2
wiped 2
Win@@ 2
Meteor 2
Crater 2
ditorium 2
megat@@ 2
fty 2
buffalo 2
devastation 2
1908 2
Siberia 2
Aykroyd 2
dinosaur 2
faint 2
row 2
Sci@@ 2
telescopes 2
29 2
bles@@ 2
disgu@@ 2
headed 2
timing 2
tolerance 2
ham 2
hole 2
rr@@ 2
vet 2
astronauts 2
Prince 2
Sch@@ 2
Wal@@ 2
astronomers 2
pul@@ 2
thrust 2
providing 2
Spock 2
bones 2
homeland 2
Poland 2
tales 2
grave 2
por@@ 2
prayer 2
sus 2
Moun@@ 2
Ox@@ 2
soldier 2
han 2
rid@@ 2
fi 2
foreig@@ 2
wer@@ 2
opium 2
addi@@ 2
Kabul 2
busines@@ 2
burq@@ 2
13,000 2
nailed 2
Bal@@ 2
sil@@ 2
worl@@ 2
peer 2
ey 2
apologizing 2
Pierson 2
esteem 2
achiev@@ 2
stru@@ 2
quiz 2
smiley 2
Then 2
sucks 2
deserves 2
betcha 2
cow 2
vegetarian 2
loca@@ 2
contributor 2
jokes 2
poisonous 2
shortages 2
admini@@ 2
stered 2
beautifully 2
canc@@ 2
direct 2
assured 2
iry 2
overconsumption 2
beta 2
kit@@ 2
tles 2
paralle@@ 2
eds 2
carbs 2
sup@@ 2
substitu@@ 2
unchanged 2
addressed 2
alize 2
wren@@ 2
herring 2
tionary 2
locally 2
elitist 2
moms 2
ack 2
restaurants 2
ethnic 2
Julia 2
claims 2
san@@ 2
Che@@ 2
orange 2
30s 2
expan@@ 2
trucks 2
Or@@ 2
farm@@ 2
tomato 2
proto 2
housework 2
occa@@ 2
let@@ 2
spin@@ 2
stom@@ 2
thr@@ 2
2000 2
doubled 2
res@@ 2
ound@@ 2
brea@@ 2
desser@@ 2
bot@@ 2
tled 2
dressing 2
baked 2
Min@@ 2
ute 2
dessert 2
cream 2
vegetarians 2
magical 2
worshi@@ 2
convert 2
gran@@ 2
coma 2
mmed 2
kets 2
aling 2
workforce 2
salmon 2
tigh@@ 2
swimming 2
cked 2
vores 2
gour@@ 2
predicted 2
eaten 2
nutrients 2
USDA 2
oid 2
meets 2
nutritional 2
sufficient 2
indi@@ 2
ately 2
recommended 2
chemist 2
printing 2
toolkit 2
inks 2
printer 2
blueprin@@ 2
diagnos@@ 2
emerged 2
assembly 2
fic@@ 2
restri@@ 2
alp@@ 2
collaborators 2
dge 2
comparing 2
primates 2
380 2
diver@@ 2
impression 2
spinneret 2
trailing 2
cat@@ 2
ching 2
sticky 2
staring 2
spigot 2
ace 2
connects 2
gland 2
sac 2
boun@@ 2
cent 2
ories 2
tubuliform 2
outer 2
flagelliform 2
ini@@ 2
repetitive 2
acids 2
dow 2
glycines 2
alanines 2
motifs 2
AAAA@@ 2
GG@@ 2
Q 2
repe@@ 2
argiope 2
units 2
ical 2
methods 2
tensile 2
stron@@ 2
gest 2
stretch 2
stretchy 2
kit 2
ilk 2
spun 2
synthetic 2
survey 2
domesticated 2
Kev@@ 2
borrow 2
rectang@@ 2
ley 2
11.@@ 2
equilateral 2
triangles 2
supp@@ 2
marketer 2
Democratic 2
Republic 2
infected 2
Kin@@ 2
midnight 2
Tr@@ 2
pack@@ 2
condom 2
packaging 2
wrapped 2
tan@@ 2
oration 2
serenity 2
rv@@ 2
ana 2
unwanted 2
occurring 2
AlDS 2
preventive 2
tros@@ 2
concerning 2
tiful 2
Now 2
chair 2
Pep@@ 2
avi@@ 2
telegraph 2
conceptual 2
extern@@ 2
alized 2
signals 2
chirping 2
DNA 2
simplest 2
kilo@@ 2
intui@@ 2
hiero@@ 2
holds 2
000 2
alphabet 2
cess@@ 2
transistors 2
computation 2
styles 2
column 2
redwood 2
ox@@ 2
soa@@ 2
toy 2
sequest@@ 2
ration 2
ethic 2
urbani@@ 2
knesses 2
basement 2
brick 2
bricks 2
engineered 2
thirty 2
skyscrap@@ 2
exterior 2
Eiffel 2
Tower 2
Australi@@ 2
announ@@ 2
THlS 2
analyzing 2
united 2
seize 2
OL@@ 2
quor 2
sis 2
popping 2
Starbucks 2
pesticides 2
park@@ 2
gardeners 2
citation 2
Come 2
councilman 2
ange@@ 2
vic@@ 2
gos@@ 2
pel 2
manufactured 2
beautify 2
cloth 2
witnessed 2
composition 2
eu@@ 2
reinforced 2
kale 2
tomatoes 2
containers 2
sustainability 2
shovel 2
inventions 2
lifes 2
DON 2
MOTORCYCLE 2
WHAT 2
KNOW 2
LD 2
DO 2
GO 2
PLAY 2
WHl@@ 2
DlNG 2
LL 2
oooooooo@@ 2
oooo@@ 2
oo 2
UUUU@@ 2
US@@ 2
ll 2
NOT 2
SE@@ 2
protagon@@ 2
dunno 2
AND 2
KE@@ 2
wingman 2
CAN 2
WAY 2
ER 2
ONE 2
KE 2
GHT 2
IN 2
MY 2
GOD 2
FU@@ 2
NOW 2
favo@@ 2
appy 2
Ph@@ 2
bri@@ 2
cin@@ 2
STOLE 2
DlCK 2
DlD 2
UH 2
humili@@ 2
embarras@@ 2
Lion 2
GREATEST 2
DUELlST 2
LlVED 2
gin 2
WALDO 2
SNOW@@ 2
integr@@ 2
mp 2
Atreyuuuuu 2
violating 2
EEEE@@ 2
Pawadox 2
Germany 2
ww@@ 2
ason 2
bitches 2
pla@@ 2
hater 2
Fudo 2
dawg 2
cease 2
spoiler 2
www@@ 2
mean@@ 2
ke- 2
invading 2
Pi@@ 2
Hitler 2
Ladies 2
Maximillion 2
nerds 2
spectacle 2
cameo 2
kidnapped 2
Hm 2
Whee 2
CD 2
tained 2
Muto 2
coul@@ 2
grand@@ 2
realm 2
raid 2
defeat 2
joining 2
distraction 2
greeting 2
Yubel 2
fwom 2
dododo 2
Dodododo@@ 2
desu 2
Pharaoh 2
ultr@@ 2
Mawific 2
twying 2
ignorance 2
wavaged 2
wifeless 2
ming 2
Caaaarrrrd 2
Gaaaames 2
stealing 2
vel 2
Cyber 2
na 2
inbow 2
spell 2
ove 2
itable 2
boobies 2
Mag@@ 2
slap 2
Twuth 2
Ya@@ 2
dragon 2
gweat 2
wic@@ 2
epic 2
sucker 2
ow 2
clo@@ 2
doubt 2
vil@@ 2
disrup@@ 2
subspace 2
cin 2
Open 2
Source 2
identified 2
DlY 2
fusion 2
use@@ 2
Mis@@ 2
ular 2
dicated 2
managing 2
barriers 2
dirt 2
cations 2
mentally 2
newly 2
transc@@ 2
equally 2
sequel 2
10@@ 2
Shovel 2
teenag@@ 2
shirtless 2
vampires 2
werewolves 2
drown 2
boy@@ 2
pow 2
unch 2
shorts 2
turmoil 2
OF 2
True 2
attract 2
alt 2
fair@@ 2
frames 2
classical 2
toni@@ 2
boundary 2
poles 2
lodestone 2
orients 2
orient 2
compass 2
attracted 2
consist@@ 2
repel 2
charges 2
monopoles 2
mirac@@ 2
halves 2
abilities 2
cutting 2
generating 2
are-- 2
cetera 2
align 2
agents 2
streaming 2
compliance 2
inform 2
ane 2
Connecticut 2
bloo@@ 2
puss 2
characterized 2
ossing 2
upshot 2
observation 2
commodity 2
pedal 2
reper@@ 2
cus@@ 2
art@@ 2
ven 2
Cap 2
&apos;n 2
Crunch 2
cereal 2
statistics 2
spells 2
Tu@@ 2
DL 2
proximity 2
CRP 2
spelled 2
calcul@@ 2
PSA 2
controversial 2
indicating 2
700 2
catalyst 2
dience 2
integrate 2
presenting 2
tion--@@ 2
formally 2
deli@@ 2
Path 2
-Okay 2
-U@@ 2
-All 2
clos@@ 2
-Ooh 2
rolling 2
-That 2
Sean 2
Connery 2
Marshmallow 2
Think 2
cont@@ 2
stop@@ 2
tongue 2
facebook 2
dug 2
Rus@@ 2
escape 2
abducted 2
leader 2
Ga@@ 2
Wars 2
abdu@@ 2
slaves 2
Cri@@ 2
ctions 2
cooperate 2
mindless 2
stration 2
democrat 2
Invisible 2
Ugand@@ 2
behalf 2
compelled 2
talent 2
radio 2
attacks 2
cries 2
DC 2
organization 2
multiplication 2
undo 2
interpretation 2
visualize 2
ign@@ 2
oldest 2
Adam 2
Trigonometry 2
longest 2
specify 2
pixels 2
pixel 2
compu@@ 2
y--@@ 2
99@@ 2
obe@@ 2
dog 2
obscure 2
teens 2
MlT 2
wishing 2
reve@@ 2
enjoyed 2
hoped 2
journal 2
natives 2
tex@@ 2
zations 2
Code 2
Blo@@ 2
Year 2
onia 2
ckets 2
clubhouses 2
printed 2
post@@ 2
soulful 2
strating 2
silently 2
uck@@ 2
ripped 2
kne@@ 2
She 2
knee 2
emailed 2
tale 2
voic@@ 2
voicemail 2
touching 2
uncover 2
unting 2
request 2
qualities 2
evi@@ 2
dent 2
interdependent 2
ripple 2
letitripple.org 2
embark 2
imaginary 2
intergalactic 2
yield 2
lasting 2
standardi@@ 2
year@@ 2
stumbled 2
ha 2
Major 2
Papua 2
Guinea 2
Up@@ 2
impaired 2
theori@@ 2
neuro@@ 2
olts 2
indu@@ 2
stimulate 2
injec@@ 2
stimulates 2
,000 2
orph@@ 2
kable 2
ow@@ 2
pun@@ 2
actuality 2
cent@@ 2
thereby 2
oneself 2
immen@@ 2
approached 2
pouring 2
flowing 2
persons 2
intent 2
enlightenment 2
discrimin@@ 2
usion 2
nothingness 2
Shakyamuni 2
seated 2
transmit 2
uncontaminated 2
lifespan 2
brocade 2
Ananda 2
monk 2
are@@ 2
monks 2
carried 2
desires 2
fool 2
gates 2
blockhead 2
Gudo 2
Daigu 2
ludicrous 2
someplace 2
tone 2
cheating 2
thro@@ 2
restrictions 2
samples 2
principal 2
unrelated 2
transferred 2
transfer@@ 2
reasonable 2
unnamed 2
District 2
Of 2
phr@@ 2
omo 2
poll 2
intimately 2
weighs 2
newtons 2
molar 2
memori@@ 2
handy 2
proportional 2
vings 2
therapist 2
gues 2
obse@@ 2
ecstatic 2
ener@@ 2
accomplish 2
appreciation 2
ber 2
disappeared 2
proof 2
ssing 2
shoved 2
legs 2
raping 2
Mili@@ 2
responsible 2
spee@@ 2
window@@ 2
disconnection 2
vision@@ 2
stag@@ 2
rub 2
wil@@ 2
Se@@ 2
rains 2
scream 2
earthquake 2
chemo 2
lic@@ 2
medication 2
connectedness 2
prayed 2
grate@@ 2
spiritual 2
ored 2
preparing 2
Michaela 2
chee@@ 2
insan@@ 2
mor 2
biography 2
invas@@ 2
removal 2
ruler 2
feast 2
539 2
2003 2
sacked 2
Persians 2
declaration 2
Iraq@@ 2
hyperbole 2
tori@@ 2
sk@@ 2
Babylonians 2
enslaved 2
recover 2
confi@@ 2
worship 2
Book 2
doms 2
Judaism 2
texts 2
53@@ 2
Med@@ 2
multicultural 2
multifaith 2
decree 2
respected 2
tin@@ 2
ational 2
afterward 2
widespread 2
oph@@ 2
traces 2
digging 2
Old 2
bat@@ 2
Declaration 2
hap@@ 2
Shah 2
1979 2
Zoroastrians 2
devout 2
emblem 2
direc@@ 2
ior 2
artic@@ 2
defender 2
tolerant 2
rants 2
head@@ 2
figures 2
mble 2
constitution 2
free@@ 2
debates 2
analogous 2
redraw 2
as-- 2
Pic@@ 2
Tomorrow 2
rifts 2
crust 2
thri@@ 2
transformed 2
Natural 2
Gas 2
00 2
deposits 2
Hubbert 2
1970 2
mayhem 2
spite 2
relent@@ 2
satisfying 2
mounting 2
nations 2
Saudi 2
Arabia 2
nineteen 2
Subur@@ 2
encourages 2
assumption 2
chemicals 2
plastics 2
manding 2
depen@@ 2
labour 2
transport 2
acqui@@ 2
Energy 2
EROEI 2
waters 2
Sands 2
converted 2
varies 2
containing 2
2040 2
deceptive 2
fails 2
structive 2
uranium 2
reserves 2
watts 2
plu@@ 2
reactors 2
fail@@ 2
obstacles 2
renewables 2
intermittent 2
hydro 2
dam@@ 2
geothermal 2
experimental 2
fts 2
drilled 2
heated 2
sures 2
turbines 2
biofuels 2
sel 2
ethanol 2
crops 2
tenth 2
2020 2
tracted 2
Hydrogen 2
Solar 2
Power 2
ny 2
alternatives 2
considering 2
transition 2
ental 2
11@@ 2
bac@@ 2
bottles 2
12.0@@ 2
exceed 2
borrowers 2
zi 2
fertili@@ 2
ser 2
communications 2
finite 2
resulted 2
floo@@ 2
nitrogen 2
runoff 2
til@@ 2
grain 2
ess@@ 2
demands 2
numerous 2
photosynthesis 2
reli@@ 2
Org@@ 2
improvements 2
catches 2
populations 2
aquifers 2
fer 2
fallen 2
pra@@ 2
rust 2
fun@@ 2
lau@@ 2
starving 2
soils 2
necessities 2
recycling 2
substitution 2
Stanley 2
ised 2
channel 2
Rare 2
Earths 2
conver@@ 2
hybrid 2
batteries 2
portable 2
X 2
reclaim 2
technological 2
estimates 2
mists 2
Stone 2
lawn 2
Romotive 2
creepy 2
creature 2
Scott 2
Sk@@ 2
ype 2
Grandma 2
see@@ 2
granddaughter 2
fifteen 2
human@@ 2
artifacts 2
instruments 2
marking 2
clue 2
Chau@@ 2
explaining 2
draws 2
dated 2
surrounding 2
wild 2
ferocious 2
inscription 2
combines 2
mia 2
ians 2
civilizations 2
tablets 2
documents 2
gifts 2
not@@ 2
associates 2
son@@ 2
Narmer 2
rain@@ 2
contribute 2
items 2
comm@@ 2
findings 2
public@@ 2
functioning 2
preceding 2
invad@@ 2
follows 2
surge 2
Secretary 2
1990s 2
ni 2
Sangin 2
clinics 2
telephones 2
elec@@ 2
elected 2
Commandant 2
Haji 2
Malem 2
Mohsin 2
Kamenj 2
Ali 2
deployed 2
mista@@ 2
Wil@@ 2
Paul 2
Save 2
char@@ 2
Norwegian 2
ystal 2
tary 2
recei@@ 2
politician 2
guilt 2
humiliation 2
plom@@ 2
Dar@@ 2
gover@@ 2
institutional 2
suspic@@ 2
timacy 2
1994 2
refugee 2
gees 2
territory 2
criticized 2
invol@@ 2
regi@@ 2
stability 2
vable 2
pushing 2
isolation 2
afi 2
Syria 2
honesty 2
expec@@ 2
shame 2
hopelessness 2
pect 2
Zimbabwe 2
plug 2
confir@@ 2
skin 2
dysfunctional 2
actor 2
biology 2
tran@@ 2
authenti@@ 2
suspended 2
infant 2
vengeful 2
lacked 2
valuing 2
rape 2
cracks 2
covers 2
propor@@ 2
drums 2
hectare 2
evaporated 2
termin@@ 2
bel 2
dusty 2
wildlife 2
bl@@ 2
accelerated 2
seasonal 2
vegetation 2
defense 2
herds 2
individu@@ 2
decay 2
tradi@@ 2
fy 2
pastoralists 2
bunching 2
profes@@ 2
Pat@@ 2
inian 2
flock 2
.AS 2
Virginia 2
poorly 2
Hunger 2
decor@@ 2
Peeta 2
Kat@@ 2
Indu@@ 2
sta 2
.... 2
100s 2
34 2
Ben 2
hy 2
neuroscienti@@ 2
Inception 2
convinced 2
luckily 2
regions 2
virus 2
pulses 2
Yep 2
optogenetics 2
undetected 2
reme@@ 2
detected 2
# 2
Free@@ 2
fications 2
tinker 2
mild 2
ici@@ 2
vac@@ 2
ian 2
rural 2
intended 2
Sam 2
Tra@@ 2
neighborhoods 2
boulev@@ 2
ruined 2
eliminate 2
waterfront 2
elevated 2
rin@@ 2
Booth 2
supporting 2
Lake 2
Erie 2
linguists 2
groupings 2
paintings 2
grav@@ 2
sculptures 2
desc@@ 2
Push 2
Press 2
Our 2
Choice 2
wind@@ 2
Mike 2
Mat@@ 2
pinch 2
diverted 2
licen@@ 2
publishers 2
para 2
ente 2
dev@@ 2
reti@@ 2
OSADI 2
disab@@ 2
IRA 2
formal 2
boomers 2
deficits 2
shrinking 2
some@@ 2
eventu@@ 2
budget 2
medi 2
plate 2
decre@@ 2
ased 2
bored 2
1-- 2
agreement 2
stealth 2
IBM 2
responsibilities 2
IRS 2
unintelligible 2
intelligible 2
mapping 2
introduced 2
priority 2
provi@@ 2
leukemia 2
40s 2
1.1 2
detect 2
interven@@ 2
suicides 2
bipolar 2
xia 2
personality 2
morbidity 2
disability 2
suppor@@ 2
connectome 2
Huntington 2
Parkinson 2
Alzheimer 2
cortex 2
sac@@ 2
re-- 2
squeezed 2
openings 2
compress 2
exam 2
technic 2
--- 2
tage 2
116 2
t. 2
.That 2
v. 2
factorization 2
numb@@ 2
ough 2
violate 2
Trinity 2
Holy 2
standpoint 2
puni@@ 2
redemption 2
ger 2
2.3 2
Bibles 2
Living 2
My@@ 2
summarized 2
Ros@@ 2
summed 2
composer 2
99.@@ 2
99.50 2
sourced 2
Scotland 2
80,000 2
onion 2
hil@@ 2
graduating 2
summoned 2
audition 2
producer 2
approved 2
Olymp@@ 2
imed 2
Commerce 2
esti@@ 2
followers 2
illiteracy 2
tradition 2
graduates 2
earn 2
migrant 2
incident 2
OE@@ 2
37 2
authorities 2
accountability 2
frustration 2
dents 2
polluted 2
status 2
BMW 2
bicycle 2
spotted 2
union 2
friction 2
Sen@@ 2
Cheers 2
applause 2
developer 2
Pra@@ 2
Don 2
famine 2
mainstream 2
qualified 2
cop 2
dropout 2
Mahatma 2
Gandhi 2
mbo 2
suspected 2
Tilonia 2
leaked 2
shines 2
priest 2
illiterate 2
dentist 2
7,000 2
rainwater 2
citizenship 2
democratic 2
cabinet 2
dazzled 2
queen 2
puppe@@ 2
Sha@@ 2
centralized 2
electri@@ 2
Ladakh 2
rest@@ 2
compul@@ 2
telephone 2
husbands 2
The@@ 2
Gambia 2
selec@@ 2
Ta@@ 2
wag@@ 2
tiger 2
2nd 2
presidential 2
promi@@ 2
Electors 2
53 2
House 2
Lou@@ 2
siana 2
electoral 2
Rhode 2
Wyoming 2
reliably 2
Kerry 2
E.U. 2
Bulgarians 2
unhappy 2
conspiracy 2
devalue 2
communism 2
hoo 2
recess 2
robotic 2
autocratic 2
untrusting 2
install 2
restrictive 2
unfulfilling 2
advan@@ 2
rats 2
socially 2
neoten@@ 2
tal 2
handicap 2
laughter 2
playful 2
guilty 2
FedEx 2
marginal 2
promoting 2
encoura@@ 2
surve@@ 2
promotion 2
hired 2
anthropo@@ 2
screens 2
adolesc@@ 2
shortest 2
worm@@ 2
adopted 2
thesis 2
pockets 2
paleonto@@ 2
Love 2
chec@@ 2
Yvonne 2
oney 2
56 2
lousy 2
contr@@ 2
profession 2
educated 2
pushy 2
struggled 2
dig@@ 2
charter 2
PalmPilot 2
inventing 2
Harlem 2
mimic@@ 2
toring 2
TP@@ 2
Camp@@ 2
performed 2
ents 2
2.0 2
censored 2
blocked 2
censor 2
networking 2
Arab 2
Mubarak 2
Tuni@@ 2
sian 2
officials 2
zh@@ 2
criticisms 2
clones 2
Sina 2
emperor 2
peas@@ 2
negotiate 2
crac@@ 2
prin@@ 2
February 2
emb@@ 2
PA 2
o.0 2
Hmmm 2
aliens 2
dan@@ 2
Sierpinski 2
multiples 2
12th 2
Kwangmyongsong 2
Unha 2
Sohae 2
Launch 2
Julsangun 2
Pyonganbukdo 2
trends 2
beings 2
poe@@ 2
hooked 2
bamboo 2
jumping 2
elation 2
horrible 2
possessive 2
gly 2
characteristics 2
obsession 2
All 2
slip 2
intoler@@ 2
bother@@ 2
caravan 2
commuted 2
plow 2
estrogen 2
cating 2
circu@@ 2
outcomes 2
idi@@ 2
compani@@ 2
replace@@ 2
conclude 2
tamper 2
mystery 2
survi@@ 2
ortal 2
associations 2
internalized 2
preconceptions 2
there@@ 2
scuba 2
consciousness 2
diagnosing 2
accurately 2
Mapping 2
abnorm@@ 2
perfor@@ 2
autistic 2
seizures 2
seiz@@ 2
scans 2
ape 2
surroun@@ 2
funni@@ 2
duffel 2
prank 2
Bri@@ 2
Square 2
peculiar 2
Up 2
More 2
solo@@ 2
polo 2
khaki 2
shop 2
guards 2
pretended 2
escalators 2
permission 2
sion@@ 2
spines 2
pluteus 2
surpri@@ 2
dles 2
Moussaoui 2
sympathy 2
Yahoo 2
Carnegie 2
50@@ 2
Ed@@ 2
ward@@ 2
insulting 2
founders 2
Severin 2
posed 2
JavaScript 2
bilinguals 2
beginners 2
unfair 2
velocity-- 2
a-- 2
top-- 2
squared-- 2
104 2
approximately-- 2
167 2
1845 2
buggy 2
ick 2
Tuesdays 2
Esquire 2
blically 2
undertook 2
fundamentalism 2
polls 2
corners 2
compassionate 2
obey 2
adulterers 2
grabbed 2
creationists 2
gymn@@ 2
sprin@@ 2
lers 2
evangelical 2
cafeterias 2
hea@@ 2
singer 2
Confucian 2
Snow@@ 2
Campbell 2
temptations 2
Way 2
Tzu 2
Mer@@ 2
magician 2
artists 2
Music 2
monitoring 2
secrecy 2
FlSA 2
shortcut 2
inspection 2
2x 2
arbitrar@@ 2
ght@@ 2
7x 2
separately 2
quartile 2
quarter 2
onex 2
1x 2
sixty 2
repeating 2
shrink 2
five. 2
seven@@ 2
&apos;th 2
trash 2
AH 2
hy@@ 1
apos@@ 1
vig@@ 1
boxing 1
cav@@ 1
intu@@ 1
tom@@ 1
compla@@ 1
ong 1
difficul@@ 1
stating 1
2a@@ 1
dom@@ 1
const@@ 1
ility 1
automa@@ 1
adly 1
differ@@ 1
tile 1
ody@@ 1
namic 1
copters 1
propell@@ 1
som@@ 1
exec@@ 1
ghts 1
Whe@@ 1
ico 1
gli@@ 1
sci@@ 1
Mul@@ 1
accoun@@ 1
manufactu@@ 1
theastern 1
omin@@ 1
photograph@@ 1
meaning@@ 1
phenomen@@ 1
obstac@@ 1
clean@@ 1
initi@@ 1
dn 1
orts 1
exhi@@ 1
oly 1
signific@@ 1
materi@@ 1
particip@@ 1
princip@@ 1
scr@@ 1
od@@ 1
gman 1
guarante@@ 1
Don@@ 1
billi@@ 1
tren@@ 1
bub@@ 1
Bas@@ 1
Til@@ 1
cacy 1
syste@@ 1
craft 1
lif@@ 1
ff 1
card@@ 1
chall@@ 1
ho 1
Amaz@@ 1
bas@@ 1
after@@ 1
oci@@ 1
tice 1
repor@@ 1
ava@@ 1
aj@@ 1
eries 1
ency 1
ald 1
sel@@ 1
chocol@@ 1
ateral 1
len@@ 1
crow@@ 1
stors 1
lowing 1
lored 1
succee@@ 1
righ@@ 1
rations 1
ware 1
signment 1
annivers@@ 1
bo 1
simil@@ 1
ital 1
smi@@ 1
Bul@@ 1
ese 1
Wi@@ 1
plum@@ 1
bru@@ 1
sex@@ 1
rying 1
divor@@ 1
consci@@ 1
ddle 1
wh@@ 1
logi@@ 1
onto@@ 1
epi@@ 1
eth@@ 1
cally 1
Des@@ 1
cate@@ 1
gori@@ 1
molecu@@ 1
chir@@ 1
thane 1
Ster@@ 1
semb@@ 1
orien@@ 1
aster@@ 1
tab@@ 1
resident 1
tting 1
ampu@@ 1
ques@@ 1
less@@ 1
ost@@ 1
bris 1
estab@@ 1
ables 1
certain@@ 1
sug@@ 1
accep@@ 1
bet@@ 1
brigh@@ 1
ti 1
inary 1
exce@@ 1
metabo@@ 1
Net@@ 1
oom 1
Flo@@ 1
sear@@ 1
evapor@@ 1
butter@@ 1
Col@@ 1
mana@@ 1
remin@@ 1
rue 1
Bos@@ 1
thu@@ 1
prou@@ 1
kid@@ 1
tivity 1
lad@@ 1
ush@@ 1
Jan@@ 1
favel@@ 1
ye@@ 1
witne@@ 1
scrat@@ 1
weap@@ 1
Lib@@ 1
lows 1
portra@@ 1
exhibi@@ 1
zer@@ 1
ceptions 1
cesses 1
resul@@ 1
stat@@ 1
sper@@ 1
TH@@ 1
RlSM 1
TlON@@ 1
kinetics 1
part@@ 1
smar@@ 1
cyclo@@ 1
pedia 1
pain@@ 1
ski 1
lowers 1
feat 1
wash@@ 1
Cali@@ 1
quie@@ 1
patri@@ 1
thy 1
cian 1
paral@@ 1
nia 1
sle@@ 1
eve 1
evol@@ 1
was@@ 1
plas@@ 1
occu@@ 1
govern@@ 1
AA@@ 1
maneu@@ 1
clear@@ 1
ssed 1
tric 1
alga@@ 1
Hos@@ 1
disper@@ 1
sugge@@ 1
foc@@ 1
desig@@ 1
tast@@ 1
instru@@ 1
constra@@ 1
mple 1
occur@@ 1
every@@ 1
expe@@ 1
dal 1
homosexu@@ 1
les@@ 1
osexu@@ 1
thers 1
ques 1
lished 1
commun@@ 1
Hind@@ 1
broad@@ 1
minu@@ 1
arity 1
enjo@@ 1
citiz@@ 1
bin 1
execu@@ 1
meth@@ 1
persever@@ 1
resili@@ 1
ity-- 1
eping 1
temper@@ 1
sudden@@ 1
increas@@ 1
thermo@@ 1
benef@@ 1
lingu@@ 1
olin@@ 1
ep@@ 1
requi@@ 1
intellig@@ 1
rejec@@ 1
metaph@@ 1
Chall@@ 1
ggers 1
commu@@ 1
2.4 1
5x 1
ules 1
ergy 1
mom@@ 1
trou@@ 1
earth@@ 1
dep@@ 1
alls 1
Vic@@ 1
Mur@@ 1
terri@@ 1
barri@@ 1
inde@@ 1
eld 1
rou@@ 1
ships 1
via 1
yl@@ 1
adox 1
possi@@ 1
bilities 1
recommen@@ 1
program@@ 1
elli@@ 1
descri@@ 1
anim@@ 1
trip@@ 1
hyp@@ 1
nos@@ 1
convin@@ 1
suc@@ 1
preci@@ 1
ises 1
produ@@ 1
gradu@@ 1
valu@@ 1
pected 1
effec@@ 1
tis@@ 1
hoods 1
percen@@ 1
tages 1
tun@@ 1
Sahar@@ 1
inability 1
ST 1
alu@@ 1
vices 1
Uni@@ 1
ere 1
oot 1
emis@@ 1
esia 1
Swe@@ 1
sor 1
ison 1
graph@@ 1
asymptot@@ 1
mili@@ 1
enty 1
prints 1
entally 1
feed@@ 1
Mu@@ 1
teries 1
summari@@ 1
ography 1
jewel@@ 1
call@@ 1
hel@@ 1
asur@@ 1
impres@@ 1
pan 1
dispers@@ 1
depos@@ 1
plat@@ 1
Stre@@ 1
catastrop@@ 1
migr@@ 1
atory 1
ral 1
erson 1
guar@@ 1
cheap@@ 1
web@@ 1
rif@@ 1
spl@@ 1
Virgin@@ 1
mbled 1
gan@@ 1
190@@ 1
tough@@ 1
enni@@ 1
yan 1
apocalyp@@ 1
sat@@ 1
dang@@ 1
iting 1
mach@@ 1
glo@@ 1
astronau@@ 1
stici@@ 1
titu@@ 1
smen 1
augh@@ 1
kh 1
colleag@@ 1
hoo@@ 1
dition 1
icient 1
aw@@ 1
ress 1
hyperbo@@ 1
bio@@ 1
visibility 1
oul@@ 1
oten@@ 1
marke@@ 1
hop@@ 1
wol@@ 1
ye 1
Chil@@ 1
feder@@ 1
Prin@@ 1
gle 1
swa@@ 1
sional 1
produc@@ 1
atoes 1
stup@@ 1
tended 1
hip@@ 1
horri@@ 1
mets 1
tribu@@ 1
recomm@@ 1
vor@@ 1
scrimin@@ 1
chemi@@ 1
anci@@ 1
Scot@@ 1
magni@@ 1
barre@@ 1
prote@@ 1
ctive 1
posite 1
drop@@ 1
spinner@@ 1
grou@@ 1
categ@@ 1
yri@@ 1
strate 1
glyc@@ 1
sibility 1
phil@@ 1
itting 1
om 1
bom@@ 1
biom@@ 1
equi@@ 1
perpendicul@@ 1
puzz@@ 1
voca@@ 1
spiritu@@ 1
hyper@@ 1
sible 1
spec@@ 1
chy 1
advis@@ 1
boards 1
preven@@ 1
mic@@ 1
measu@@ 1
gly@@ 1
now@@ 1
aller 1
gen 1
fted 1
stry 1
theore@@ 1
techno@@ 1
Ll@@ 1
rus 1
wheel@@ 1
law@@ 1
ution@@ 1
gang@@ 1
garden@@ 1
WH@@ 1
UU@@ 1
OUR 1
MOTORCYC@@ 1
NA@@ 1
DU@@ 1
GH@@ 1
HlS 1
CH@@ 1
deva@@ 1
teach@@ 1
conveni@@ 1
Pee@@ 1
egasus 1
posse@@ 1
ef 1
wo@@ 1
daw@@ 1
pa 1
ro 1
thre@@ 1
esome 1
chil@@ 1
ools 1
ensla@@ 1
inte@@ 1
scre@@ 1
ening 1
disagre@@ 1
wotag@@ 1
onist 1
wy 1
hypo@@ 1
unk 1
Gard@@ 1
ef@@ 1
Synch@@ 1
af@@ 1
est@@ 1
yle 1
rap 1
Mal@@ 1
fic 1
cen@@ 1
oud 1
dol@@ 1
alalalal@@ 1
alal@@ 1
mes@@ 1
fas@@ 1
fault 1
technologi@@ 1
struction 1
optimi@@ 1
lesc@@ 1
ema@@ 1
protot@@ 1
itory 1
bene@@ 1
ath 1
environ@@ 1
iest 1
werewol@@ 1
schizophre@@ 1
nic 1
lood 1
RC 1
histori@@ 1
metal@@ 1
Magne@@ 1
compas@@ 1
has@@ 1
mathema@@ 1
cke@@ 1
rep@@ 1
elled 1
magne@@ 1
Ari@@ 1
infec@@ 1
ossed 1
isol@@ 1
characteri@@ 1
betes 1
soci@@ 1
apa 1
rad@@ 1
atly 1
pt 1
vag@@ 1
ld 1
lar@@ 1
50s 1
agnos@@ 1
adop@@ 1
DE@@ 1
func@@ 1
neighbor@@ 1
cha 1
tin 1
kidn@@ 1
edly 1
versity 1
CC 1
aughter 1
defin@@ 1
republi@@ 1
democr@@ 1
appli@@ 1
them@@ 1
ometry 1
gonometry 1
dient 1
Dra@@ 1
gry 1
La@@ 1
atu@@ 1
consider@@ 1
Goo@@ 1
deca@@ 1
acks 1
ect 1
incre@@ 1
club@@ 1
PostSecre@@ 1
adverti@@ 1
mas 1
exu@@ 1
ritu@@ 1
lap@@ 1
Foun@@ 1
pple 1
journe@@ 1
wom@@ 1
fro@@ 1
smil@@ 1
cour@@ 1
surr@@ 1
differenti@@ 1
sity 1
teac@@ 1
Budd@@ 1
bani@@ 1
disci@@ 1
loo@@ 1
clude 1
susta@@ 1
ands 1
verse 1
unti@@ 1
Bo@@ 1
ire 1
wis@@ 1
Tw@@ 1
stant 1
fting 1
illy 1
care@@ 1
entertain@@ 1
ight 1
Afri@@ 1
asing 1
ita 1
tro@@ 1
gas@@ 1
0.0@@ 1
edy 1
mur@@ 1
mole@@ 1
mage 1
scar 1
contaminated 1
oms 1
ograp@@ 1
fashi@@ 1
minated 1
rand@@ 1
ans@@ 1
tivi@@ 1
weigh@@ 1
R. 1
represen@@ 1
ires 1
decl@@ 1
ests 1
Test@@ 1
interest@@ 1
V 1
guaran@@ 1
usu@@ 1
block@@ 1
declar@@ 1
magnitu@@ 1
cub@@ 1
presen@@ 1
obli@@ 1
hydro@@ 1
fossi@@ 1
oil@@ 1
enab@@ 1
bell 1
ysi@@ 1
ulf 1
condi@@ 1
ruption 1
ome 1
gol@@ 1
moun@@ 1
extr@@ 1
ssion 1
politici@@ 1
thanol 1
clim@@ 1
requ@@ 1
teri@@ 1
sources 1
yment 1
tou@@ 1
nit@@ 1
xide 1
lion 1
quad@@ 1
arc@@ 1
anic 1
sium 1
aqui@@ 1
ries 1
gi 1
lands 1
tiv@@ 1
entially 1
ished 1
Glob@@ 1
Ban@@ 1
stems 1
hybri@@ 1
real@@ 1
lia 1
cataly@@ 1
fib@@ 1
leum 1
extre@@ 1
arm@@ 1
curren@@ 1
aff@@ 1
tele@@ 1
proce@@ 1
cere@@ 1
birth@@ 1
ship@@ 1
atten@@ 1
oral 1
inscrip@@ 1
cro@@ 1
vine 1
transl@@ 1
trage@@ 1
kha@@ 1
dencies 1
Isla@@ 1
bert 1
197@@ 1
inher@@ 1
ide 1
Cha@@ 1
Chr@@ 1
secre@@ 1
Wester@@ 1
disa@@ 1
runk 1
refu@@ 1
onal 1
insurgen@@ 1
insur@@ 1
doc@@ 1
prepar@@ 1
cei@@ 1
classi@@ 1
U.@@ 1
Sec@@ 1
RS 1
eness 1
olic 1
anom@@ 1
arly 1
credi@@ 1
gely 1
revel@@ 1
buli@@ 1
divi@@ 1
stance 1
marine 1
cially 1
underst@@ 1
evap@@ 1
sus@@ 1
threat@@ 1
mac@@ 1
abo@@ 1
dation 1
damag@@ 1
justi@@ 1
vili@@ 1
deser@@ 1
ologists 1
tac@@ 1
ero@@ 1
tracting 1
research@@ 1
ety 1
recla@@ 1
Sa@@ 1
eli@@ 1
lying 1
enth@@ 1
awk@@ 1
believable 1
lah 1
Sun@@ 1
yst@@ 1
formation 1
pharmac@@ 1
ap 1
ject 1
mbers 1
capac@@ 1
tempor@@ 1
cular 1
publi@@ 1
artif@@ 1
fal@@ 1
neurosci@@ 1
degra@@ 1
ancy 1
ier 1
sty@@ 1
ffic 1
stree@@ 1
alm 1
venue 1
ustin 1
sever@@ 1
sians 1
od 1
ell 1
auth@@ 1
swi@@ 1
docu@@ 1
publish@@ 1
perfec@@ 1
ment@@ 1
cubi@@ 1
neces@@ 1
tamp@@ 1
qui@@ 1
van 1
DI 1
exerci@@ 1
gy 1
ids 1
favor@@ 1
yers 1
agree@@ 1
lymp@@ 1
astic 1
killers 1
ore@@ 1
good@@ 1
simpli@@ 1
redu@@ 1
fest 1
contain@@ 1
this@@ 1
like@@ 1
energ@@ 1
dru@@ 1
aceful 1
.1 1
dne@@ 1
hem 1
ene@@ 1
pay@@ 1
dee@@ 1
ather 1
dates 1
Si@@ 1
ord 1
refer@@ 1
fer@@ 1
revol@@ 1
mitted 1
shap@@ 1
coura@@ 1
Tal@@ 1
orm@@ 1
person@@ 1
kly 1
ei@@ 1
contro@@ 1
vers@@ 1
glob@@ 1
girl@@ 1
financi@@ 1
rati@@ 1
sky@@ 1
rocke@@ 1
belon@@ 1
app@@ 1
shor@@ 1
bility 1
refin@@ 1
responding 1
mely 1
itu@@ 1
rescu@@ 1
correc@@ 1
port 1
gue 1
quali@@ 1
profession@@ 1
tence 1
chit@@ 1
rought 1
cho@@ 1
een 1
rais@@ 1
inable 1
ces@@ 1
quot@@ 1
1st 1
presid@@ 1
dict@@ 1
aska 1
Ken@@ 1
lege 1
200@@ 1
Flori@@ 1
handi@@ 1
seri@@ 1
ousness 1
coffe@@ 1
rote 1
gious 1
tability 1
Bulgari@@ 1
dio@@ 1
titive 1
fron@@ 1
glu@@ 1
motiv@@ 1
ski@@ 1
auto@@ 1
emplo@@ 1
yer 1
tality 1
essen@@ 1
lun@@ 1
otic 1
heavi@@ 1
analo@@ 1
geograp@@ 1
need@@ 1
who@@ 1
sum@@ 1
corre@@ 1
innov@@ 1
Ge@@ 1
strate@@ 1
val 1
IP@@ 1
prev@@ 1
eland 1
You@@ 1
U.S@@ 1
happ@@ 1
ple 1
senten@@ 1
viron@@ 1
nal 1
microblo@@ 1
Jin@@ 1
q@@ 1
mem@@ 1
Twit@@ 1
vements 1
transparen@@ 1
tist 1
censor@@ 1
streng@@ 1
U 1
Stan@@ 1
spir@@ 1
oes 1
memor@@ 1
2,@@ 1
discover@@ 1
iral 1
remain@@ 1
red@@ 1
arti@@ 1
lighted 1
wers 1
Kwangmy@@ 1
estim@@ 1
Yu@@ 1
casu@@ 1
character@@ 1
ould 1
itch 1
conser@@ 1
Arab@@ 1
ark 1
imag@@ 1
tual 1
geni@@ 1
astoni@@ 1
equality 1
arr@@ 1
yto@@ 1
commit@@ 1
identi@@ 1
push@@ 1
procedu@@ 1
narra@@ 1
para@@ 1
xed 1
obser@@ 1
ray 1
Elec@@ 1
tisti@@ 1
clin@@ 1
ure 1
defic@@ 1
desper@@ 1
dings 1
vide@@ 1
tizens 1
ater 1
mers 1
laugh@@ 1
cade 1
authori@@ 1
aled 1
depres@@ 1
tici@@ 1
Yor@@ 1
stadi@@ 1
cer@@ 1
urch@@ 1
tili@@ 1
sna@@ 1
yra@@ 1
resemb@@ 1
aph@@ 1
tot@@ 1
gel@@ 1
Cen@@ 1
convic@@ 1
tured 1
Musli@@ 1
embrac@@ 1
visu@@ 1
lon 1
tup 1
gous 1
scan@@ 1
aded 1
digiti@@ 1
ext 1
op 1
distin@@ 1
stor@@ 1
Can@@ 1
bilingu@@ 1
tane@@ 1
begin@@ 1
hope@@ 1
any@@ 1
acceler@@ 1
rememb@@ 1
yel@@ 1
denomin@@ 1
dows 1
thing@@ 1
ves@@ 1
Mi@@ 1
what@@ 1
fascin@@ 1
RP 1
Is@@ 1
We@@ 1
kend 1
inea 1
cane 1
cot@@ 1
grab@@ 1
arest 1
shepher@@ 1
rela@@ 1
entu@@ 1
creation@@ 1
thank@@ 1
precon@@ 1
Christi@@ 1
vari@@ 1
world@@ 1
miser@@ 1
Hun@@ 1
ultural 1
respon@@ 1
dence 1
Fa@@ 1
zen 1
Wor@@ 1
ka 1
mand@@ 1
ature 1
ath@@ 1
Chri@@ 1
sop@@ 1
chron@@ 1
iz@@ 1
borro@@ 1
icians 1
wonder@@ 1
sy 1
ward 1
gress 1
iming 1
illing 1
ya@@ 1
monit@@ 1
uncon@@ 1
stitu@@ 1
ax@@ 1
alge@@ 1
straight@@ 1
arbitr@@ 1
multipli@@ 1
reason@@ 1
trav@@ 1
elling 1
whis@@ 1
pocke@@ 1
hundre@@ 1
again@@ 1
teen@@ 1
los@@ 1
dness 1
ares 1
lowed 1
rope 1
di 1
youn@@ 1
wan@@ 1
mly 1
suff@@ 1
excell@@ 1
Jos@@ 1
