， 4984
嘅 4672
我 4456
。 2638
的 2597
係 2280
哋 2022
你 1719
佢 1671
呢 1527
唔 1284
個 1112
有 1080
喺 1070
同 1045
就 1011
可以 995
啲 862
人 850
到 844
" 771
是 768
都 767
一個 759
咗 706
地 697
系 683
但 678
- 674
好 664
. 632
在 619
我们 614
？ 607
咁 577
所以 571
, 571
了 538
會 526
如果 517
而 498
做 485
去 460
用 459
我們 444
嘢 437
因為 412
要 412
） 409
这 402
上 394
（ 392
、 391
嚟 380
講 373
一个 365
睇 361
度 360
點 355
話 339
樣 336
! 325
當 291
或者 290
个 288
这个 280
中 279
將 278
「 277
下 273
埋 270
： 270
」 268
自己 268
對 264
知道 264
嗰 256
和 250
年 248
開始 246
所有 238
仲 237
一 231
被 229
唧 228
需要 224
多 219
問題 213
好似 212
令 212
家 212
大 210
依 209
可能 203
出 202
知 199
無 197
它 195
事 192
3 192
最 191
好多 187
為 187
会 187
諗 185
以 182
他 182
就是 181
時 180
? 180
世界 178
得 177
( 177
) 177
啦 175
時候 167
過 165
冇 165
成 163
見 161
其他 160
哩 158
把 155
畀 154
而且 153
已經 153
亦 153
覺得 153
然後 152
真 151
果 151
笑聲 150
返 149
咩 147
重要 146
大家 146
又 142
細 141
日 139
緊 139
住 138
得到 137
想 137
這 137
入 136
非常 136
邊 135
來 133
我想 130
再 130
解 130
地方 129
比 127
更 127
之後 126
一樣 125
所 125
只 124
時間 123
说 123
1 123
食 123
發現 122
由 121
路 120
4 120
﹐ 119
生活 118
新 115
從 114
研究 114
噶 114
︰ 113
落 112
噉 112
不過 112
黎 112
性 111
發生 110
掌聲 110
他們 110
問 109
美國 109
其實 107
我的 107
著 106
2 105
来 105
種 105
之 103
方法 102
方式 102
相 102
先 101
者 101
能 100
现在 100
然后 99
工作 98
/ 98
玩 97
仔 97
！ 97
不 97
化 96
中國 96
因为 96
起 95
搵 95
叫 95
那 95
左 94
改變 94
個人 93
乜 93
人類 93
对 92
a 91
宜家 91
就會 91
故事 91
面 90
这些 90
但是 90
距 89
第 88
两 88
俾 87
之前 87
从 87
任何 86
分子 85
意 85
響 85
四 84
一些 84
这里 84
與 84
能量 84
让 83
他们 83
希望 83
部 83
很 82
等 82
甚至 82
應該 81
張 81
乘 81
至 81
食物 81
一齊 80
學 80
这样 80
朋友 80
其中 79
月 79
将 79
例子 79
不@@ 79
聽 78
问题 78
高 78
計劃 78
使用 78
向 77
也 77
都有 77
不同 77
向量 77
簡單 76
大腦 76
現在 76
你们 75
寫 75
國家 75
甘 75
% 75
第二 74
吧 74
笑 74
10 73
即 73
啊 73
一下 73
社會 73
更多 73
那么 73
你會 72
幾 72
当 72
看 72
于 72
反应 72
原因 71
今日 71
一@@ 71
斯 71
等于 71
行 70
啱 70
为 70
我要 70
語言 70
於 70
数 69
或 69
認為 69
網 69
没有 68
系統 68
能夠 68
一定 68
自我 68
石油 68
讓 67
嗎 67
做到 66
完全 66
成為 66
小 65
正 65
每 64
分 64
相信 64
你的 64
因此 63
最後 63
低 63
给 63
全球 63
學生 63
並 63
什么 62
咪 62
影響 62
画 62
卡 62
關於 61
帶 61
只有 61
位 61
不是 61
手 61
开始 61
法 61
學習 61
一種 61
同時 60
條 60
实际 60
里 60
程序 60
前 60
D 60
女性 60
城市 59
女 59
子 59
士 59
件 59
上面 59
政府 59
多謝 58
部分 58
像 58
使 58
方向 58
都會 58
錯 58
億 58
拉 57
9 57
它们 57
控制 57
另一 57
可 57
過去 57
跟 57
少 57
當時 56
跟住 56
陣 56
決定 55
着 55
放 55
更加 55
差 55
: 55
健康 55
你們 55
佐 55
蜘蛛 55
記憶 54
x 54
次 54
企 53
車 53
整 53
旋 53
力 53
能力 53
地球 53
州 53
演講 53
變成 52
0 52
水 52
事實上 52
想要 52
明白 52
細胞 52
這個 52
博 52
事情 51
結果 51
教育 51
提供 51
間 51
碳 51
幾個 50
全部 50
真正 50
例如 50
加 50
後 50
增加 50
答案 50
代表 50
= 50
翻譯 50
說 50
打 49
街 49
身體 49
只是 49
雖然 49
鐘 49
對於 49
存在 49
名 49
什麼 49
屋 48
幫 48
於是 48
兩個 48
看到 48
一种 48
機械 48
設計 48
我會 48
太 48
情況 48
信息 48
一次 48
未來 48
呀 48
一位 48
歲 48
一直 47
繼續 47
东西 47
出現 47
變得 47
以及 47
當然 47
學校 47
書 46
我有 46
裡 46
快 46
时 46
根本 46
翼 46
請 46
長 46
鍾 46
萬 46
裡面 46
解決 46
同樣 46
將會 45
技術 45
有人 45
教 45
除以 45
定 45
機器 45
無@@ 45
量 45
阿富汗 45
5 45
有趣 45
超過 45
走 44
裏面 44
未 44
如何 44
都是 44
点 44
動物 44
吓 44
孩子 44
油 44
魯 44
有個 43
6 43
必須 43
嘛 43
另外 43
女人 43
愛 43
班 43
科技 43
藥物 43
♪ 43
居 43
坐 42
克 42
大@@ 42
成功 42
概念 42
速度 42
很多 42
重 42
b 42
都可以 42
行為 42
頭 42
創造 42
意思 42
分享 42
微 42
的是 42
方 42
数字 42
选举 42
份 41
花 41
式 41
加上 41
叫做 41
第一 41
20 41
經濟 41
大概 41
原子 41
构 41
病人 41
比如 41
絲 41
你要 40
另 40
时候 40
值 40
空間 40
遊戲 40
公司 40
每一 40
心 40
給 40
沒有 40
即使 40
燃料 40
除 39
应该 39
首先 39
+ 39
就有 39
通過 39
天 39
最大 39
想像 39
安全 39
病 39
這是 39
增長 39
沒 39
老鼠 39
生命 38
生 38
仍然 38
架 38
过 38
种 38
環境 38
了解 38
買 38
容易 38
各位 38
錢 38
辦法 38
温度 38
大學 37
聽到 37
器 37
造成 37
我是 37
y 37
看看 37
模型 37
過程 37
有關 37
開 37
製造 37
令人 37
型 37
您 37
多少 37
網站 37
代码 37
英文 37
這些 37
聲 36
怎么 36
中的 36
写 36
状态 36
建立 36
还有 36
利用 36
無論 36
影 36
边 36
8 36
這樣 36
能源 36
嘗試 35
隻 35
· 35
某 35
止 35
n 35
我去 35
你有 35
類 35
喇 35
自 35
光 35
們 35
好多人 34
最好 34
时间 34
并 34
号 34
就算 34
方面 34
變 34
30 34
她 34
選擇 34
貼 34
解釋 34
詞 34
史 34
開心 33
接受 33
那些 33
还 33
理解 33
科學 33
互 33
譬如 33
美元 33
巴 33
發展 33
年前 33
瞭解 33
角度 33
腦 33
想法 33
自发 33
磁体 33
男人 32
資訊 32
都好 32
正在 32
相同 32
条 32
成本 32
只要 32
資料 32
單 32
會有 32
以前 32
項目 32
場 32
年輕人 32
幾多 32
市場 32
秘密 32
他的 32
清楚 32
一件 32
这种 32
人口 32
; 32
土地 32
機會 32
神 32
； 32
自由 32
至少 32
疾病 32
數字 32
伊朗 32
關係 31
段 31
一切 31
小朋友 31
努力 31
不能 31
德 31
唯一 31
已 31
電腦 31
產生 31
程度 31
感 31
每個 31
情况 31
區 31
文字 31
無法 31
內 30
望 30
三 30
之間 30
不知道 30
7 30
空间 30
展示 30
形成 30
位置 30
可能會 30
主要 30
受到 30
印度 30
明 30
愈 30
人生 30
當中 30
片 30
一張 30
利 30
大部分 30
我認為 30
線 30
整個 30
越 30
道 30
圖 30
爾 30
影片 30
藝術 30
減少 30
布 30
turtles 30
恐懼 30
證明 30
編碼 30
北极 30
比較 29
準備 29
揾 29
为什么 29
最近 29
發 29
完成 29
三個 29
第一次 29
本書 29
思考 29
老師 29
一份 29
擺 29
絕對 29
我在 29
一样 29
特別 29
之中 29
經歷 29
阻止 29
野 29
幫助 29
进行 29
晒 29
输入 29
學院 29
我把 29
資源 29
一個人 28
率 28
认为 28
已经 28
后 28
運動 28
塊 28
知識 28
包括 28
作為 28
企業 28
聲音 28
識 28
事實 28
透過 28
本 28
吗 28
学 28
擁有 28
连 28
它的 28
抗 28
還有 28
假设 28
[ 28
投票 28
來自 28
一日 27
藥 27
高@@ 27
50 27
體 27
計 27
外 27
淨 27
死 27
梗 27
百分 27
電影 27
模式 27
生物 27
讲 27
肥胖 27
胰島素 27
一年 27
相片 27
] 27
根 27
歷史 27
報告 27
測試 27
人們 27
哈哈 27
矢量 27
聯 27
醫生 26
发生 26
视频 26
整个 26
世界上 26
做的 26
有@@ 26
機 26
步 26
自然 26
連 26
討論 26
反應 26
意義 26
人@@ 26
十分 26
系统 26
塔 26
飲食 26
基 26
中心 26
肯定 26
你想 26
進行 26
相互 26
曾經 26
為了 26
此 26
價值 26
真實 26
蜘蛛絲 26
早 25
離開 25
攞 25
民 25
嘞 25
工具 25
同样 25
是否 25
并不 25
一点 25
平方 25
发现 25
必须 25
基本 25
一步 25
難 25
作用 25
五 25
大自然 25
動 25
I 25
裏 25
年代 25
重新 25
一間 25
直接 25
支持 25
文化 25
百萬 25
喔 25
感覺 25
作品 25
參與 25
變化 25
你是 25
小行星 25
嘀 25
紐約 24
似 24
見過 24
讀 24
記得 24
基本上 24
現實 24
一條 24
你会 24
的话 24
耐 24
電 24
夠 24
數據 24
運作 24
目前 24
英里 24
回 24
幾年 24
揀 24
舊 24
突然 24
部份 24
數 24
遇到 24
Caine 24
板 24
100 24
变成 24
婚姻 24
愛情 24
我知道 24
為什麼 24
心@@ 24
表示 24
本身 24
非 24
哈 24
《 24
》 24
米 24
太陽能 24
感到 24
熵 24
杜 24
告訴 24
生產 24
龍 24
﹑ 24
大量 23
一部分 23
并且 23
课程 23
计算 23
e 23
S@@ 23
更好 23
s 23
限制 23
每次 23
也是 23
函数 23
實際上 23
社 23
工 23
曬 23
試 23
非洲 23
字 23
科學家 23
美金 23
全世界 23
鼓掌 23
出來 23
通常 23
複雜 23
死亡 23
信 23
永遠 23
以為 23
数据 23
电子 23
运行 23
王 23
作 23
聯繫 23
元素 23
進入 23
英語 23
木 23
尾 23
奇怪 22
㗎 22
程 22
觉得 22
那个 22
出来 22
世 22
搞 22
指 22
究竟 22
拍 22
計算 22
持續 22
面對 22
易 22
事物 22
算 22
十@@ 22
来说 22
受 22
& 22
婦女 22
中意 22
父母 22
看起来 22
就要 22
好好 22
導致 22
團隊 22
条件 22
魚 22
唸 22
氣候 22
公式 22
停止 22
墨西哥灣 22
表達 22
遊星 22
DM 22
圓柱 22
退休 22
卻 21
箱 21
R@@ 21
真的 21
i@@ 21
p@@ 21
关于 21
变化 21
通过 21
波 21
合作 21
下面 21
格 21
今年 21
拿 21
身 21
交流 21
周圍 21
每年 21
场 21
游戏 21
集 21
身上 21
创造 21
物 21
波斯 21
古 21
貓 21
25 21
之一 21
色 21
团 21
180 21
嗯 21
它是 21
留 21
引起 21
加州 21
找到 21
新的 21
碼 21
建築 21
化石 21
沒錯 21
十代 21
南极 21
耶 20
线 20
这么 20
做了 20
最后 20
探索 20
作为 20
t 20
翻 20
傳統 20
直到 20
服務 20
一點 20
爺爺 20
綠色 20
and 20
h@@ 20
反 20
在於 20
嚴重 20
因 20
500 20
世紀 20
靚 20
顯示 20
起來 20
認真 20
浪漫 20
16 20
罪 20
生存 20
性的 20
重@@ 20
終於 20
每個人 20
难 20
余 20
火 20
圖像 20
現代 20
噢 20
全 20
人的 20
連接 20
如此 20
產品 20
负 20
產 20
美 20
海洋 20
那個 20
特 20
煤 20
Kony 20
劉 20
一刻 19
分鐘 19
力量 19
为了 19
同一 19
去到 19
分数 19
些 19
不管 19
对于 19
一件事 19
數學 19
理論 19
六 19
有效 19
太多 19
正確 19
A@@ 19
媽媽 19
a@@ 19
每一個 19
11 19
瘋狂 19
上@@ 19
達 19
銀行 19
因素 19
破壞 19
恩 19
数量 19
糖尿病 19
並且 19
消失 19
行动 19
句 19
用到 19
拯救 19
15 19
意識 19
滿 19
音樂 19
事件 19
數量 19
形式 19
很好 19
語 19
变 19
质数 19
且 19
農業 19
等於 19
沙 19
° 19
輪椅 19
～ 19
明信片 19
琌 19
候选 19
幾@@ 18
結 18
百 18
傾 18
编 18
学生 18
查 18
用@@ 18
好@@ 18
多@@ 18
有了 18
2@@ 18
互相 18
到达 18
节点 18
各種 18
經過 18
加入 18
指向 18
正如 18
發明 18
L@@ 18
b@@ 18
近 18
of 18
蚊 18
哇 18
每日 18
改变 18
言 18
想象 18
C 18
房 18
中@@ 18
大多數 18
半 18
其 18
怎样 18
样 18
也可以 18
超 18
今天 18
我不 18
由於 18
Google 18
图 18
靠 18
第三 18
戰爭 18
结果 18
達到 18
正常 18
一千 18
頁 18
製作 18
騎 18
革命 18
馬 18
滿足 18
减 18
基因 18
覆 17
類似 17
打@@ 17
文 17
殺 17
痛 17
一部 17
都要 17
机 17
版本 17
告诉 17
与 17
18 17
e@@ 17
i 17
停 17
動作 17
倍 17
流@@ 17
o 17
群 17
保護 17
小@@ 17
自@@ 17
年輕 17
一路 17
千 17
超級 17
短 17
挑戰 17
作出 17
好了 17
共有 17
你在 17
危險 17
網絡 17
有用 17
A 17
社交 17
相@@ 17
到底 17
要求 17
接 17
理 17
回到 17
这边 17
就像 17
合 17
明顯 17
海 17
驚 17
水平 17
會話 17
驗證 17
實驗 17
直觉 17
决定 17
畫 17
上帝 17
釋放 17
幾乎 17
神經 17
投入 17
客 17
化學 17
需求 17
英國 17
保障 17
層 17
平均 17
水@@ 17
決 17
組 17
伊 17
威 17
人民 17
套 17
網上 17
公路 17
模 17
Romo 17
用戶 17
衫 16
40 16
包 16
估 16
台 16
继续 16
不会 16
星期 16
定义 16
有些 16
等等 16
郁 16
方程 16
假設 16
山 16
下降 16
食品 16
醫療 16
不可能 16
一段 16
呎 16
燈 16
活動 16
代 16
一場 16
爸爸 16
d 16
剩 16
的確 16
興趣 16
乎 16
有一 16
可@@ 16
我又 16
TED 16
金 16
好吧 16
吸引 16
各地 16
美国 16
好難 16
創意 16
最終 16
失去 16
300 16
求 16
学习 16
简单 16
駛 16
生@@ 16
創作 16
表現 16
媒體 16
紙 16
亞 16
該 16
似乎 16
巨大 16
結束 16
你將 16
形 16
還 16
接近 16
總結 16
磁力 16
也就是 16
東西 16
80 16
不要 16
不斷 16
許多 16
黑 16
T@@ 16
壓力 16
嫲 16
肉 16
三角形 16
尼 16
摩托車 16
諾 16
明星 16
荒漠 16
柠檬 16
朝 15
只不過 15
站 15
員 15
送 15
失@@ 15
命 15
之外 15
記 15
课 15
们 15
序列 15
轉@@ 15
飛 15
每@@ 15
算法 15
哦 15
輸入 15
依賴 15
技能 15
會點 15
太空 15
勁 15
偉大 15
植物 15
養 15
w@@ 15
t@@ 15
step 15
參加 15
反而 15
通 15
二十 15
家庭 15
幸福 15
改 15
習慣 15
答 15
纸 15
长 15
事实 15
星 15
一起 15
B@@ 15
賣 15
無人 15
組織 15
指出 15
特殊 15
期 15
發@@ 15
好消息 15
老公 15
相機 15
笑容 15
好處 15
號 15
CH2 15
异 15
切 15
心臟病 15
以下 15
小心 15
撞到 15
理由 15
考慮 15
保 15
表达 15
60 15
兩 15
社區 15
區域 15
行動 15
舉 15
喜歡 15
做得 15
帕 15
垂直 15
來講 15
這裡 15
有機 15
相當 15
地區 15
过程 15
19@@ 15
時代 15
他人 15
歡迎 15
影响 15
村 15
世上 15
埃及 15
菲 15
摧毀 15
蛛 15
族 15
樹 15
真是 15
決鬥 15
智能 15
嘎 15
巴比倫 15
积 15
天然氣 15
產量 15
数轴 15
选票 15
完 14
覺 14
啫 14
原來 14
處理 14
視 14
痛苦 14
记住 14
材料 14
选择 14
分母 14
取 14
又有 14
一条 14
距离 14
掌握 14
程式 14
注意 14
留意 14
聰明 14
以上 14
囉 14
實 14
互動 14
功能 14
g@@ 14
泥土 14
粒子 14
起@@ 14
講到 14
擔心 14
流 14
巴士 14
游乐 14
好的 14
口 14
o@@ 14
獲得 14
國際 14
兩@@ 14
一半 14
電話 14
二 14
不會 14
影像 14
獎 14
具有 14
思想 14
專業 14
是不是 14
永远 14
天@@ 14
阿 14
驚訝 14
相關 14
專家 14
品 14
最终 14
质量 14
幅 14
牆 14
從來 14
總 14
蛋白 14
實驗室 14
五@@ 14
識得 14
五官 14
強烈 14
或许 14
創新 14
百科 14
症 14
焓 14
彼此 14
音 14
藍色 14
图形 14
不用 14
出@@ 14
角 14
艾 14
拿走 14
克斯 14
社会 14
Scratch 14
自殺 14
換 13
局 13
堂 13
彩 13
加@@ 13
大約 13
想做 13
新@@ 13
科学 13
放@@ 13
棒 13
14 13
移动 13
可行 13
四個 13
觀眾 13
關鍵 13
上去 13
頂 13
跳 13
球 13
打開 13
機構 13
轉 13
現象 13
s@@ 13
一萬 13
關心 13
少少 13
轉變 13
如果有 13
成績 13
五十 13
我只 13
H@@ 13
人们 13
他是 13
国家 13
認識 13
羅 13
5@@ 13
根據 13
所謂 13
存 13
會@@ 13
老 13
別 13
會講 13
目的 13
氯 13
便 13
几个 13
返回 13
几 13
熟悉 13
组 13
没 13
总是 13
~ 13
正确 13
合理 13
今次 13
千萬 13
關 13
跟著 13
內@@ 13
定義 13
名字 13
当然 13
其实 13
亂 13
政治 13
屬於 13
現場 13
阿婆 13
语言 13
內容 13
－ 13
聖經 13
奧 13
一百 13
快樂 13
最多 13
多数 13
壞 13
13 13
若 13
測量 13
可能是 13
12 13
裝 13
算出 13
代理 13
往 13
有点 13
提出 13
家@@ 13
掉 13
大人 13
蛇 13
目標 13
还是 13
窮 13
沙漠 13
誰 13
來到 13
到了 13
生態 13
物種 13
北京 13
再次 13
桶 13
困難 13
字幕 13
多種 13
寬 13
‧ 13
主義 13
進化 13
纖維 13
量角器 13
供應 13
不想 13
臉 13
概要 13
Jacob 13
и 13
气体 13
sinθ 13
油田 13
發電 13
敏感 13
籠 13
精神病 13
裹 13
即刻 12
晚 12
室 12
先@@ 12
下来 12
同时 12
域 12
起来 12
3@@ 12
6@@ 12
道理 12
错误 12
分成 12
尼亚 12
飛行 12
收@@ 12
物理 12
一系列 12
掂 12
特定 12
空氣 12
商業 12
精神 12
M@@ 12
及 12
D@@ 12
商 12
安 12
興奮 12
ar@@ 12
on 12
對@@ 12
喎 12
阿媽 12
成長 12
認知 12
考試 12
塞 12
地點 12
想到 12
排@@ 12
主 12
E@@ 12
建造 12
认识 12
論 12
當地 12
盒 12
工業 12
對方 12
刺激 12
共同 12
建議 12
才 12
走@@ 12
老婆 12
汽車 12
項 12
錯誤 12
一直都 12
提醒 12
海@@ 12
也就 12
旋转 12
转 12
语 12
开 12
平@@ 12
我也 12
兩種 12
後果 12
狀態 12
提高 12
无 12
雀 12
问 12
建 12
概率 12
600 12
B 12
G@@ 12
巴黎 12
然 12
最@@ 12
眼 12
心理 12
時期 12
行@@ 12
個個 12
一塊 12
一般 12
回答 12
包含 12
歐洲 12
痛楚 12
開關 12
1@@ 12
正是 12
運 12
爲 12
Chris 12
按 12
完美 12
地@@ 12
網路 12
媽咪 12
平台 12
處 12
高速公路 12
平方根 12
來說 12
索 12
十 12
可是 12
層面 12
本地 12
古@@ 12
經 12
紅色 12
組合 12
確實 12
引擎 12
幾百 12
鳥 12
細菌 12
毀滅 12
實在 12
一生 12
柏 12
帝國 12
放入 12
重視 12
大脑 12
愛麗絲 12
傑克 12
主人公 12
磁场 12
整体 12
胺 12
商場 12
土壤 12
啟動 12
议员 12
星期二 12
師 11
顏色 11
既然 11
是在 11
那里 11
u@@ 11
C@@ 11
帮助 11
见 11
动作 11
沿着 11
修改 11
距離 11
杯 11
倒 11
聽過 11
分別 11
一定會 11
表演 11
收到 11
相當於 11
面前 11
er@@ 11
in@@ 11
in 11
成就 11
金融 11
應 11
南部 11
太陽 11
風 11
會同 11
狀 11
to 11
an@@ 11
d@@ 11
公@@ 11
付出 11
發覺 11
科 11
理想 11
日@@ 11
K@@ 11
小說 11
门 11
车 11
白 11
基金 11
看@@ 11
成立 11
基础 11
之后 11
内 11
参 11
爱 11
投資 11
關注 11
lt 11
主題 11
廣告 11
提到 11
開@@ 11
借貸 11
遠 11
舞蹈 11
失敗 11
願意 11
鬼 11
照 11
東尼 11
理念 11
既 11
镜 11
不过 11
就在 11
依然 11
体 11
无法 11
在一起 11
也有 11
癌症 11
為@@ 11
假如 11
相反 11
醫學 11
推@@ 11
各@@ 11
都想 11
繁殖 11
变量 11
依赖 11
才能 11
之@@ 11
畫面 11
主角 11
自豪 11
句子 11
暴力 11
美好 11
丹 11
越來越 11
再@@ 11
伊拉克 11
唱 11
而言 11
系列 11
市 11
兒童 11
手指 11
下@@ 11
尋找 11
來@@ 11
中央 11
3D 11
十年 11
記錄 11
界 11
西@@ 11
只@@ 11
掃描 11
amp 11
碰撞 11
而是 11
比例 11
曾 11
满足 11
總統 11
召喚 11
留言 11
排放 11
權 11
那是 11
實@@ 11
輸油管 11
一面 11
岩石 11
多年 11
文章 11
氣體 11
預計 11
一倍 11
拖 11
說明 11
甲 11
90 11
45 11
萬人 11
亞洲 11
人數 11
生長 11
褲 11
母親節 11
主持 11
模仿 11
撒 11
税 11
众议员 11
審查 11
vf 11
起身 10
地鐵 10
教授 10
醫院 10
跌 10
真@@ 10
普 10
維持 10
出去 10
伯 10
作@@ 10
喜欢 10
请 10
le@@ 10
右边 10
解决 10
许多 10
同@@ 10
区 10
保@@ 10
简 10
零 10
则 10
阿拉 10
目标 10
路径 10
处 10
称 10
姆 10
O@@ 10
保證 10
收集 10
基礎 10
分@@ 10
棍 10
如@@ 10
高度 10
任務 10
八@@ 10
全新 10
立 10
反@@ 10
一項 10
亦即 10
三@@ 10
裝置 10
隨 10
it@@ 10
關@@ 10
之下 10
雲 10
雨 10
2008 10
黑暗 10
the 10
n@@ 10
m@@ 10
港 10
孩 10
寫@@ 10
袋 10
不如 10
不停 10
足 10
你好 10
貴 10
要@@ 10
硬 10
垃圾 10
在座 10
追求 10
叻 10
番 10
願 10
返工 10
精彩 10
账户 10
前@@ 10
也@@ 10
成@@ 10
只能 10
数学 10
年@@ 10
造 10
德州 10
打算 10
收入 10
如 10
門 10
經營 10
20@@ 10
忽視 10
不幸 10
研究員 10
假@@ 10
Facebook 10
體驗 10
肚 10
性愛 10
數碼 10
奇 10
W@@ 10
稱 10
爆炸 10
林 10
身份 10
知识 10
氢 10
儿 10
負責 10
足夠 10
腺 10
風險 10
毒 10
情 10
p 10
土 10
ok 10
管理 10
仍 10
情緒 10
嗱 10
救 10
必要 10
電視 10
以來 10
業 10
中東 10
震驚 10
取得 10
要用 10
旅行 10
热 10
执行 10
出现 10
猶太人 10
上邊 10
一隻 10
一名 10
某些 10
角色 10
過度 10
吃 10
發表 10
慢 10
變量 10
設備 10
這@@ 10
复杂 10
帶到 10
免費 10
也许 10
密度 10
長大 10
手@@ 10
深@@ 10
訊息 10
常 10
Bandura 10
維基 10
危機 10
教學 10
正@@ 10
文明 10
制度 10
兩位 10
交通 10
浪費 10
或是 10
這就是 10
± 10
每天 10
政策 10
老@@ 10
神奇 10
環保 10
200 10
噸 10
初 10
現時 10
方案 10
tan 10
幼蟲 10
恐慌 10
叉 10
四@@ 10
看來 10
工程師 10
四十 10
改革 10
任 10
家畜 10
素 10
樽 10
普遍 10
二@@ 10
一句 10
钱 10
一頁 10
建設 10
劇 10
地磁 10
攝影機 10
軟件 10
中間 10
開採 10
放牧 10
加法 10
圖書 10
减法 10
玩得 10
依戀 10
Duolingo 10
鞋 9
男 9
毫無 9
擊 9
隊 9
現 9
醒 9
同事 9
腳 9
氣 9
网络 9
猜 9
.@@ 9
y@@ 9
页 9
进 9
往@@ 9
都在 9
快速 9
题 9
版 9
金@@ 9
山@@ 9
名@@ 9
保持 9
西 9
活 9
穩定 9
標記 9
執行 9
重點 9
合成 9
微@@ 9
得出 9
轆 9
調 9
起碼 9
幾時 9
結合 9
相似 9
改善 9
k@@ 9
進步 9
它們 9
都能 9
納 9
風@@ 9
學識 9
you 9
l@@ 9
領袖 9
思 9
半@@ 9
七 9
同學 9
工廠 9
隔離 9
飯 9
功 9
未必 9
你講 9
之內 9
後@@ 9
切@@ 9
收 9
味 9
值得 9
字@@ 9
电影 9
学@@ 9
晚上 9
人物 9
击 9
排 9
终于 9
演@@ 9
员 9
压力 9
每个人 9
一张 9
票 9
船 9
款 9
环 9
gt 9
尊重 9
權力 9
享受 9
女士 9
就業 9
夜晚 9
儲存 9
導 9
一邊 9
交@@ 9
稅 9
感染 9
只會 9
贏 9
身邊 9
強@@ 9
友 9
警察 9
犯 9
得意 9
都@@ 9
词 9
描述 9
内容 9
懂 9
象 9
说法 9
选 9
好事 9
約翰 9
患上 9
消耗 9
磅 9
鼓勵 9
治療 9
意見 9
承認 9
普通 9
失望 9
间 9
印象 9
记得 9
阵 9
话 9
神秘 9
音乐 9
字母 9
S 9
忽略 9
CPD 9
过的 9
底 9
此@@ 9
遊 9
頂峰 9
傳 9
政@@ 9
話題 9
巴勒斯坦 9
博物館 9
料 9
洛杉磯 9
寄 9
无@@ 9
藥效 9
感謝 9
降低 9
跑 9
手機 9
戴 9
飲 9
污染 9
粟米 9
制 9
變@@ 9
評估 9
用來 9
音符 9
单 9
颜色 9
移動 9
here 9
达到 9
增长 9
好像 9
出生 9
常@@ 9
宗教 9
羊 9
自信 9
堆 9
福 9
皮 9
大型 9
吸收 9
ΔH 9
讨论 9
撞 9
这项 9
容 9
网 9
4@@ 9
隨著 9
小孩 9
留下 9
時刻 9
照顧 9
任何人 9
歌 9
民主 9
Khan 9
理@@ 9
原 9
,000 9
夫 9
自身 9
並不 9
2002 9
這項 9
思維 9
長期 9
衛星 9
王國 9
城 9
暖 9
面積 9
人士 9
蘇 9
森林 9
推動 9
瓦 9
河流 9
外@@ 9
選 9
煮 9
牛 9
溫室 9
取代 9
草 9
相比 9
環形 9
特性 9
按照 9
一代 9
伴侶 9
Sin 9
讚 9
打倒 9
透 9
吃了 9
发展 9
该 9
跳舞 9
直角三角形 9
閱讀 9
女朋友 9
 9
τ 9
妮 9
平 9
标准 9
陰道 9
經文 9
右手 9
愛上 9
00 9
岁 9
技法 9
赤腳 9
选区 9
性慾 9
潛水 9
诊断 9
瞓 8
每秒 8
牌 8
往往 8
從未 8
急症 8
院 8
交 8
活@@ 8
冰 8
日子 8
就得 8
幸運 8
工程 8
服务 8
当@@ 8
能够 8
st@@ 8
书 8
有时 8
有些人 8
变得 8
将会 8
as@@ 8
相乘 8
意义 8
任意 8
均 8
初始 8
集合 8
原@@ 8
标 8
路线 8
之间 8
熱 8
原理 8
代價 8
天生 8
反饋 8
稱為 8
分析 8
獨立 8
判斷 8
預@@ 8
特@@ 8
重力 8
動力 8
背後 8
放棄 8
學@@ 8
要點 8
操作 8
最低 8
識別 8
當成 8
F@@ 8
就@@ 8
電@@ 8
al@@ 8
ing 8
me 8
er 8
for 8
m 8
試過 8
婆婆 8
z@@ 8
食@@ 8
樓 8
節目 8
斷 8
re@@ 8
故 8
規劃 8
接觸 8
上網 8
好想 8
新聞 8
最高 8
並非 8
来到 8
制作 8
Twitter 8
洗 8
儿童 8
火@@ 8
注@@ 8
游 8
受害者 8
馬@@ 8
種族 8
2005 8
營 8
金錢 8
盤 8
生意 8
戰 8
員工 8
下次 8
數目 8
v@@ 8
眾 8
經常 8
緊要 8
充滿 8
有意義 8
患 8
各 8
被人 8
主@@ 8
想@@ 8
信仰 8
觀察 8
避免 8
瘦 8
訓 8
卑 8
離婚 8
年齡 8
th@@ 8
不太 8
傳@@ 8
谷 8
支 8
哲學 8
過@@ 8
拉@@ 8
于是 8
能不能 8
想想 8
向上 8
溴 8
甲烷 8
立体 8
结构 8
意味 8
欢迎 8
然而 8
介绍 8
哪 8
足够 8
命令 8
27 8
盡 8
床 8
三年 8
聽@@ 8
比喻 8
威脅 8
遠@@ 8
扮 8
旅程 8
最少 8
夢想 8
关系 8
都会 8
细 8
Ch@@ 8
随机 8
G 8
分布 8
石 8
表 8
表明 8
有意思 8
動畫 8
大規模 8
有無 8
一幅 8
得@@ 8
偷 8
聽講 8
以色列 8
比@@ 8
維 8
禮拜 8
傳播 8
字符 8
看来 8
差異 8
意@@ 8
運行 8
才是 8
形容 8
還是 8
講過 8
專注 8
強大 8
父 8
症狀 8
更@@ 8
障礙 8
製 8
一篇 8
博士 8
約 8
成千上萬 8
全@@ 8
尔 8
演奏 8
粒 8
天气 8
集中 8
圖表 8
派 8
动 8
到底是 8
傻 8
BB 8
神@@ 8
呃 8
國 8
畢竟 8
設 8
整@@ 8
這麼 8
就好 8
縮 8
我再 8
共振 8
效果 8
所@@ 8
意念 8
實現 8
判断 8
释放 8
ΔS 8
根据 8
才@@ 8
单位 8
溝通 8
歸@@ 8
限 8
當@@ 8
駕駛 8
夜 8
遺產 8
說@@ 8
能@@ 8
源 8
啥 8
联 8
技术 8
却 8
方便 8
圖片 8
弊 8
2000 8
長@@ 8
流失 8
怎樣 8
深 8
那@@ 8
這件事 8
應用 8
物品 8
兼 8
石頭 8
三十 8
例 8
一顆 8
知@@ 8
非@@ 8
原始 8
之所以 8
講得 8
廿 8
題 8
怕 8
史上 8
蔬菜 8
多數 8
多過 8
道路 8
沒@@ 8
先進 8
幹 8
酸 8
原则 8
剛果 8
70 8
積木 8
草地 8
公園 8
威尼斯 8
塵 8
贏了 8
先生 8
即興 8
極 8
經理 8
 8
ぃ 8
碞 8
摩尔 8
嬰兒 8
馬爾 8
轉化 8
激光 8
基地 8
总统 8
军队 8
国 8
张 8
奎 8
信托 8
公眾 8
债 8
六個 8
濃縮 8
国会 8
赢得 8
保加利亞 8
嚴肅 8
脑 8
男@@ 7
兩樣 7
身為 7
化@@ 7
阿@@ 7
共@@ 7
中有 7
回@@ 7
头 7
而不是 7
拥有 7
r@@ 7
播放 7
仅 7
以外 7
实@@ 7
只需要 7
7@@ 7
添加 7
N@@ 7
I@@ 7
迪 7
助 7
加速 7
定位 7
指令 7
予 7
義 7
害 7
講解 7
物體 7
兩點 7
運動員 7
八 7
以@@ 7
待 7
隨便 7
始終 7
人員 7
將來 7
介紹 7
ic@@ 7
權利 7
責任 7
H 7
追 7
觀 7
經驗 7
呈現 7
直 7
岩 7
怪獸 7
am 7
en 7
f@@ 7
c@@ 7
es 7
or@@ 7
座 7
人工 7
施 7
公 7
測驗 7
氣@@ 7
青少年 7
讀書 7
兒 7
咋 7
住@@ 7
拼 7
ch@@ 7
所在 7
堅持 7
捉 7
物質 7
犀利 7
一堆 7
主意 7
好玩 7
踩 7
下去 7
准确 7
响 7
小时 7
一天 7
带 7
an 7
糖 7
恤 7
很大 7
学校 7
以此 7
J@@ 7
六@@ 7
离 7
喜愛 7
畢業 7
講起 7
提 7
治 7
利@@ 7
一片 7
訪問 7
官員 7
從事 7
一群 7
偏見 7
不論 7
不在 7
印 7
差不多 7
業@@ 7
流行 7
下一代 7
經歷過 7
以後 7
承諾 7
臺 7
結婚 7
夫妻 7
不需要 7
白@@ 7
舉@@ 7
做@@ 7
對象 7
上升 7
學到 7
酒 7
防@@ 7
久 7
稱之為 7
信念 7
本@@ 7
么 7
看一下 7
写成 7
不到 7
前面 7
会说 7
确定 7
显然 7
调 7
独立 7
一套 7
醫 7
批評 7
金字塔 7
難以 7
控 7
需 7
攝取 7
清 7
更大 7
同意 7
上次 7
24 7
碎 7
有关 7
35 7
人类 7
现 7
聪明 7
除了 7
仅仅 7
转换 7
来看 7
西方 7
法國 7
本人 7
執 7
17 7
舍 7
後來 7
怪 7
搞笑 7
職業 7
感受 7
尿 7
啟發 7
貧民窟 7
用途 7
保留 7
屋頂 7
會將 7
範圍 7
公共 7
l 7
觀點 7
事@@ 7
地帶 7
節 7
目的地 7
意外 7
参数 7
存入 7
找 7
無關 7
民族 7
1000 7
膽固醇 7
飛機 7
血管 7
專@@ 7
國@@ 7
手臂 7
凍 7
慘 7
階段 7
大氣 7
狀況 7
領域 7
研究生 7
900 7
單位 7
這種 7
期間 7
或者是 7
章 7
記者 7
潮 7
討厭 7
聚@@ 7
軸 7
揸 7
煙 7
近@@ 7
說話 7
牙 7
ask 7
le 7
南 7
if 7
资源 7
分散 7
通@@ 7
经验 7
较 7
名称 7
iPad 7
小兒 7
畫@@ 7
貝蒂 7
熱愛 7
伺服器 7
突破 7
長時間 7
Doug 7
通用 7
喊 7
情@@ 7
O 7
生成 7
热量 7
是正 7
混乱 7
红色 7
一旦 7
排列 7
完整 7
减去 7
認 7
文@@ 7
刻 7
魔 7
二次 7
倍数 7
33 7
無形 7
折 7
計畫 7
擁抱 7
电 7
听 7
Academy 7
改造 7
产生 7
斯@@ 7
規模 7
冷@@ 7
利潤 7
帶著 7
核@@ 7
大氣層 7
二氧化碳 7
攝影 7
縱 7
看上去 7
規則 7
清晰 7
移 7
Mozilla 7
提議 7
客人 7
大眾 7
岩層 7
酒店 7
油污 7
海豚 7
從來未 7
恐龍 7
原子彈 7
壓 7
軌道 7
兩年 7
蠢 7
年後 7
北@@ 7
認同 7
講法 7
依樣 7
質素 7
肉類 7
不可 7
列 7
貨車 7
核心 7
蟲 7
生物學家 7
七@@ 7
氨 7
快@@ 7
光@@ 7
99 7
都比 7
木頭 7
建築物 7
建築師 7
用量 7
開放 7
預測 7
要有 7
150 7
左右 7
耕作 7
隨時 7
女孩 7
活躍 7
不錯 7
感受到 7
目前為止 7
Magnesia 7
针 7
磁 7
极 7
电荷 7
刷牙 7
牙線 7
做法 7
分離 7
試圖 7
化驗 7
閃亮 7
烏干達 7
受@@ 7
法@@ 7
块 7
書寫 7
為你 7
2010 7
電擊 7
 7
养活 7
mol 7
希伯來 7
賽 7
複製 7
趨勢 7
安@@ 7
糧食 7
增長率 7
草原 7
升 7
iPhone 7
公開 7
Bob 7
秒 7
干预 7
组织 7
紧 7
养老 7
單詞 7
部長 7
奇数 7
vi 7
＂ 7
副 6
一晚 6
我被 6
傷 6
入@@ 6
散 6
圍繞 6
业 6
很快 6
Youtube 6
录像 6
ne 6
笔记 6
而已 6
剩下 6
你将 6
布加勒斯特 6
注 6
茨 6
公里 6
意味著 6
螺旋槳 6
雙 6
足以 6
應對 6
感應器 6
錄 6
恢復 6
開發 6
娛樂 6
成員 6
ed@@ 6
k 6
並不是 6
科@@ 6
東 6
帶@@ 6
風暴 6
幸 6
河 6
at@@ 6
one 6
題目 6
探討 6
我@@ 6
手上 6
卷 6
盡@@ 6
正正 6
di@@ 6
ac@@ 6
紅 6
打擊 6
合@@ 6
又會 6
節奏 6
追@@ 6
比起 6
以往 6
曾經有 6
擺@@ 6
爭 6
後生 6
報導 6
上床 6
睡@@ 6
买 6
成了 6
试图 6
他在 6
万 6
一大 6
笔 6
周@@ 6
获得 6
斜 6
电脑 6
我还 6
试 6
沉@@ 6
也不 6
创 6
挑战 6
成为 6
太@@ 6
空@@ 6
底部 6
这儿 6
如下 6
已经有 6
达 6
對抗 6
遇見 6
拒絕 6
管 6
鞋帶 6
之處 6
尼亞 6
附近 6
精@@ 6
全國 6
男性 6
小型 6
注入 6
時@@ 6
而@@ 6
利益 6
視@@ 6
韌 6
親 6
身@@ 6
法律 6
屬 6
忍受 6
效應 6
更有 6
顯然 6
肥 6
質 6
一切都 6
童年 6
基於 6
生日 6
惗 6
報@@ 6
假 6
槍 6
去世 6
體@@ 6
卡@@ 6
頓 6
氢原子 6
键 6
比较 6
说明 6
回来 6
要是 6
另一方面 6
重点 6
一陣 6
抗@@ 6
營養 6
反映 6
卡路里 6
瘀傷 6
根@@ 6
付 6
搞@@ 6
點算 6
離 6
過多 6
穀物 6
觀念 6
多個 6
實際 6
同情 6
旅 6
使得 6
深刻 6
会@@ 6
听到 6
绝 6
行为 6
额 6
震撼 6
捕捉 6
拿到 6
放在 6
举 6
固 6
刚才 6
ri@@ 6
步骤 6
分裂 6
喂 6
許 6
即時 6
我先 6
人人 6
罪犯 6
公分 6
市@@ 6
面@@ 6
隔 6
衝突 6
差別 6
軍隊 6
綁架 6
熱@@ 6
柱 6
英雄 6
橋 6
軍 6
無用 6
读 6
内存 6
国际 6
強 6
效 6
難以置信 6
狗 6
酒杯 6
作家 6
萊 6
耳@@ 6
技巧 6
洛 6
某種 6
感覺到 6
肌肉 6
機@@ 6
哥 6
400 6
五千 6
重量 6
× 6
23 6
萬@@ 6
至@@ 6
背景 6
构成 6
几乎 6
店 6
历史 6
质 6
很有 6
乐谱 6
向日葵 6
空白 6
下邊 6
一本 6
愉快 6
情感 6
死@@ 6
路@@ 6
案例 6
图表 6
清@@ 6
低@@ 6
新生 6
做出 6
显示 6
循环 6
滴 6
搖 6
齋 6
動@@ 6
宣言 6
最初 6
比利 6
密 6
高興 6
减小 6
动能 6
稳定 6
势能 6
关心 6
过去 6
空 6
總之 6
財富 6
中文 6
循環 6
兩隻 6
童 6
裡邊 6
賞 6
未@@ 6
ol@@ 6
期待 6
女兒 6
000 6
聯邦 6
65 6
36 6
相加 6
敢 6
美麗 6
告 6
深深 6
獨自 6
勇氣 6
喜悅 6
傷害 6
不夠 6
有著 6
有所 6
找出 6
媒体 6
一边 6
写的 6
涂鸦 6
特别 6
上有 6
名為 6
貧窮 6
魚類 6
蛋白質 6
大概有 6
體積 6
含量 6
水源 6
伐 6
表土 6
三倍 6
黑色 6
55 6
拍攝 6
冬天 6
瑞典 6
三角 6
反正 6
小數點 6
深入 6
解@@ 6
介意 6
即將 6
穆 6
獲@@ 6
評論 6
啡 6
地面 6
追溯到 6
英 6
顯@@ 6
殼 6
表面 6
氣球 6
脆弱 6
漏油 6
信號 6
衝擊 6
直@@ 6
百@@ 6
至於 6
遜 6
都應該 6
大聲 6
停車場 6
衝@@ 6
金屬 6
撞擊 6
阿波 6
2004 6
足球 6
發射 6
探測器 6
祈禱 6
溫@@ 6
輟學 6
受過 6
道歉 6
製品 6
蔬果 6
共通 6
種植 6
甜 6
律 6
千@@ 6
吐絲 6
石化 6
轉頭 6
延展 6
属 6
自制 6
捐贈 6
联系 6
95 6
前列腺 6
何@@ 6
木@@ 6
歸 6
排放量 6
嵌 6
夢 6
尤其是 6
什 6
欸 6
伽 6
最強 6
歐 6
眼中 6
演出 6
回來 6
謝 6
活在 6
並沒有 6
進 6
是誰 6
實質 6
重大 6
可怕 6
磁石 6
尽管 6
地理 6
偶 6
地图 6
缺乏 6
標籤 6
在@@ 6
正式 6
壞蛋 6
换 6
四份 6
第三个 6
相等 6
晝 6
純熟 6
有點 6
辯論 6
母 6
Matty 6
集体 6
 6
绑 6
51 6
凈 6
萬物 6
耶路撒冷 6
神殿 6
回歸 6
塑造 6
盒子 6
P@@ 6
週末 6
牲畜 6
马 6
将军 6
投影 6
大象 6
凱 6
登 6
缴 6
工薪 6
最小公倍数 6
罪人 6
五年 6
党 6
缅因州 6
赢 6
霖 6
隨地 6
乌 6
偶数 6
proc2 6
笑声 6
激勵 6
硬币 6
又重 5
啤 5
練習 5
最新 5
送到 5
血 5
個頭 5
手術 5
端 5
消@@ 5
存@@ 5
穿 5
頭髮 5
修 5
車@@ 5
曼 5
处于 5
开心 5
Sp@@ 5
ing@@ 5
2012 5
推出 5
提交 5
改@@ 5
人员 5
不得不 5
态度 5
首 5
发 5
超过 5
简化 5
又是 5
剩@@ 5
嘿 5
一致 5
节 5
有三 5
左边 5
奥 5
de@@ 5
75 5
借@@ 5
電池 5
自動 5
鏡頭 5
活力 5
從而 5
空中 5
平衡 5
結構 5
撐 5
杆 5
息@@ 5
綁 5
重複 5
策略 5
定律 5
輕@@ 5
呼 5
功@@ 5
li@@ 5
sc@@ 5
us 5
日後 5
人權 5
連繫 5
釣魚 5
南@@ 5
妳 5
超@@ 5
巨 5
闊 5
陽光 5
麥 5
伏 5
ve 5
ry 5
or 5
daughters 5
sons 5
se@@ 5
se 5
ed 5
自從 5
家長 5
則 5
探@@ 5
清潔 5
六千 5
九@@ 5
富@@ 5
樂@@ 5
會去 5
坊 5
惡@@ 5
底下 5
地步 5
舒服 5
閒 5
分配 5
忘記 5
狂@@ 5
志 5
飛@@ 5
單車 5
冒險 5
不足 5
帶來 5
樂趣 5
較 5
见到 5
男孩 5
等待 5
做成 5
早@@ 5
熟 5
早上 5
槽 5
谢谢 5
不再 5
经历 5
个人 5
在于 5
创新 5
火箭 5
火焰 5
准备 5
参加 5
宇宙 5
奇妙 5
撰寫 5
播 5
開展 5
事業 5
窗 5
報 5
少@@ 5
佔 5
協助 5
資金 5
務 5
朱 5
新興 5
5000 5
好正 5
例外 5
人去 5
惠 5
供 5
癌 5
考 5
蛋糕 5
會為 5
直至 5
會比 5
幾大 5
家務 5
奧斯卡 5
最佳 5
案 5
疑 5
福利 5
心智 5
朗 5
善用 5
無意識 5
廳 5
開頭 5
嚇 5
道德 5
憑 5
留@@ 5
困 5
日常生活 5
别 5
烷 5
面有 5
连接 5
命名 5
试着 5
挪 5
性质 5
映 5
变@@ 5
由于 5
哪个 5
真实 5
将要 5
现实 5
记 5
保证 5
性@@ 5
代謝 5
輕 5
如今 5
學者 5
請@@ 5
殘@@ 5
防止 5
從此 5
承受 5
首@@ 5
國內 5
而又 5
有時候 5
病@@ 5
巧 5
保存 5
擦 5
景 5
地所 5
来自于 5
持续 5
充@@ 5
推荐 5
观察 5
教@@ 5
里面 5
坚@@ 5
用于 5
on@@ 5
而有 5
2011 5
街頭 5
到處 5
麗 5
擔憂 5
手段 5
牆上 5
燒 5
信@@ 5
扭曲 5
負 5
傳達 5
民眾 5
梯 5
舊@@ 5
各式各樣 5
證實 5
里@@ 5
約@@ 5
集@@ 5
掌控 5
蒙 5
戰@@ 5
選舉 5
鋪 5
邀請 5
打電話 5
ev@@ 5
ll@@ 5
禁止 5
面具 5
意大利 5
種類 5
明@@ 5
超出 5
我来 5
别的 5
何 5
再來 5
某人 5
整體 5
提升 5
邊@@ 5
啓 5
行路 5
暴@@ 5
回復 5
急 5
估計 5
噪音 5
六十 5
致命 5
愛@@ 5
融入 5
譜 5
宣傳 5
Chandler 5
渴望 5
只需 5
服@@ 5
左@@ 5
觸@@ 5
摸 5
神經系統 5
脊髓 5
頭條 5
聚 5
針 5
^ 5
那裡 5
位於 5
雨林 5
還@@ 5
上空 5
2007 5
环境 5
亦有 5
翻译 5
摆 5
掌声 5
香味 5
另一種 5
簡直 5
X 5
電單車 5
數值 5
回覆 5
第@@ 5
条件下 5
space 5
以后 5
典 5
最好的 5
相关 5
补丁 5
setup 5
指数 5
错 5
查找 5
设 5
訓練 5
蓋 5
穆斯林 5
教導 5
孤@@ 5
接下來 5
光明 5
可惜 5
周 5
損失 5
公民 5
步驟 5
確保 5
扔 5
否定 5
某個 5
細細 5
韌性 5
文獻 5
小小 5
疊 5
描@@ 5
咯 5
恒定 5
这次 5
放出 5
运动 5
结合 5
蓝色 5
向右 5
认知 5
低温 5
大小 5
慢慢 5
负数 5
绝对 5
一项 5
一定是 5
拜 5
布@@ 5
阿拉伯 5
草@@ 5
前所未有 5
見證 5
太好 5
律師 5
路上 5
蘭 5
反對 5
站在 5
德文 5
英@@ 5
格@@ 5
牧@@ 5
操縱 5
注意到 5
52 5
跟@@ 5
比率 5
2a 5
8@@ 5
313 5
Newtown 5
悲傷 5
艱難 5
退@@ 5
g 5
h 5
守@@ 5
都做 5
告知 5
能有 5
制定 5
驅使 5
在此 5
悖 5
牛@@ 5
圆 5
物@@ 5
苹果 5
酷 5
作者 5
消息 5
部門 5
精力 5
編輯 5
雨水 5
抑制 5
除非 5
翻@@ 5
U@@ 5
視為 5
場@@ 5
木材 5
聯合 5
露 5
來回 5
元 5
早期 5
捉到 5
細節 5
替代 5
遵守 5
岸 5
石@@ 5
想像力 5
π 5
符號 5
字面上 5
往左 5
往右 5
13@@ 5
件事 5
運輸 5
消費者 5
慳 5
簡約 5
立刻 5
最愛 5
口@@ 5
收埋 5
去@@ 5
尼羅河 5
有成 5
覆蓋 5
採樣 5
潛在 5
痕跡 5
證據 5
師@@ 5
崩潰 5
跡象 5
海底 5
尤其 5
災難 5
全年 5
糟 5
污 5
向下 5
幾十年 5
裝@@ 5
已@@ 5
蒂 5
法案 5
旨 5
想將 5
離@@ 5
油井 5
洞 5
同步 5
支援 5
高峰 5
坑 5
十五 5
穿過 5
2009 5
250 5
塞@@ 5
波@@ 5
骨@@ 5
境 5
膽 5
嗌 5
必@@ 5
演員 5
職責 5
牛肉 5
不了 5
菜 5
簡化 5
雞 5
未有 5
莉 5
環 5
蘭花 5
野@@ 5
添 5
一餐 5
圍 5
常見 5
成人 5
食肉 5
充足 5
相對 5
劑 5
獵物 5
填 5
拿@@ 5
点儿 5
銷 5
信任 5
尽 5
哪里 5
短短 5
短@@ 5
康 5
其@@ 5
溫哥華 5
水泥 5
適合 5
3,@@ 5
際 5
實踐 5
那麼 5
甚麼 5
園圃 5
華盛頓 5
你說 5
聽起來 5
有夠 5
快要 5
同志 5
才對 5
滾 5
Snarf 5
時空 5
雪 5
超越 5
來的 5
將要 5
不少 5
母親 5
欲 5
死了 5
粉絲 5
所知 5
說的 5
勝 5
公平 5
抽 5
向前 5
忍 5
與此同時 5
效率 5
回收 5
強迫 5
陌生人 5
$ 5
维基 5
黄色 5
加拿大 5
起源 5
解释 5
牙醫 5
採取 5
廣泛 5
顔色 5
進一步 5
采取 5
分數 5
依@@ 5
Gavin 5
做什麼 5
就此 5
反抗 5
費 5
Joseph 5
來自於 5
第二个 5
绿色 5
斜邊 5
正弦 5
按鈕 5
寫作 5
人心 5
封 5
平等 5
地位 5
盽 5
笵 5
み 5
ぱ 5
算术 5
感@@ 5
19 5
興建 5
職 5
0.098 5
摩 5
生病 5
覺醒 5
獨特 5
傳記 5
圓柱體 5
舉辦 5
耶和華 5
多元 5
異@@ 5
議 5
维 5
asinθ 5
实 5
到達 5
代@@ 5
小時 5
頁岩 5
種種 5
利息 5
有限 5
48 5
古老 5
花費 5
火狐 5
9@@ 5
亿 5
部队 5
减少 5
el@@ 5
哈佛 5
联合 5
驻扎 5
山地 5
救援 5
透明 5
利亚 5
感情 5
人類學 5
鬥爭 5
月份 5
掣 5
彼得 5
水牛城 5
缴纳 5
FICA 5
医疗 5
盈余 5
傳遞 5
壓擠 5
谁 5
惩罚 5
好啊 5
珊 5
大媽 5
鄉下 5
證書 5
總理 5
繫 5
提昇 5
晏 5
嬲 5
封鎖 5
140 5
抑鬱 5
埋沒 5
障碍 5
紊乱 5
Justin 5
自闭症 5
卵子 5
網頁 5
reCAPTCHA 5
這就 5
西班牙文 5
悬崖 5
30m 5
琴 4
警@@ 4
途中 4
講@@ 4
森 4
儀式 4
母@@ 4
爭取 4
救@@ 4
護 4
副作用 4
知覺 4
輸 4
嚿 4
結@@ 4
力@@ 4
血@@ 4
諸如此類 4
偈 4
幕 4
慶祝 4
閂 4
食指 4
運@@ 4
面孔 4
测验 4
分钟 4
ter 4
码 4
请求 4
志@@ 4
那样 4
难@@ 4
不错 4
课堂 4
鼓舞 4
关注 4
电视 4
具体 4
已知 4
不为 4
乘法 4
分别 4
1,@@ 4
抵消 4
不对 4
看做 4
出发 4
组成 4
出了 4
总 4
ra@@ 4
微型 4
手提 4
發送 4
廣@@ 4
細@@ 4
示範 4
腿 4
指@@ 4
玻璃杯 4
無需 4
固定 4
應付 4
受歡迎 4
精確 4
球@@ 4
多大 4
跡 4
第四 4
抵抗 4
接著 4
藝 4
群體 4
潛能 4
極@@ 4
致 4
條件 4
發掘 4
勞@@ 4
ge@@ 4
從@@ 4
敦 4
夏天 4
由你 4
灌溉 4
渣 4
形狀 4
可愛 4
目@@ 4
from 4
so 4
your 4
thats 4
Go 4
ick 4
bu@@ 4
but 4
ro@@ 4
yp@@ 4
ag@@ 4
ec@@ 4
ate 4
my 4
av@@ 4
her@@ 4
hi@@ 4
all 4
駕馭 4
加以 4
暑假 4
就去 4
訪 4
工資 4
九 4
貧@@ 4
懸@@ 4
名牌 4
有錢 4
操 4
單純 4
妹 4
立@@ 4
出世 4
今時 4
競爭 4
us@@ 4
求@@ 4
有時會 4
慕 4
欣賞 4
接觸到 4
塑 4
豐富 4
影@@ 4
始 4
遺忘 4
念 4
j@@ 4
吖 4
巨@@ 4
細小 4
小店 4
当时 4
队 4
网上 4
奖@@ 4
进入 4
话题 4
英国 4
一支 4
c 4
客@@ 4
聊天 4
说话 4
意识 4
致@@ 4
风 4
赛 4
设定 4
首都 4
划 4
祝 4
商學院 4
屠殺 4
il@@ 4
顧問 4
驚喜 4
黃@@ 4
貨幣 4
路口 4
有位 4
芝 4
售賣 4
微小 4
職位 4
印尼 4
擴展 4
.org 4
試驗 4
差@@ 4
看待 4
男士 4
奇@@ 4
多方面 4
輕視 4
0@@ 4
戒指 4
婚 4
舞 4
家人 4
度假 4
賓 4
截然不同 4
頭@@ 4
納@@ 4
舉例 4
外觀 4
與其 4
吸@@ 4
滿@@ 4
爛 4
生涯 4
喜劇 4
逆向 4
標題 4
一方面 4
監獄 4
地上 4
課 4
質疑 4
考驗 4
無知 4
認@@ 4
上學 4
采 4
篇 4
論文 4
戊 4
的确 4
走到 4
氟 4
稍微 4
后面 4
来讲 4
时@@ 4
属于 4
含有 4
三维 4
处理 4
成分 4
己 4
今@@ 4
开@@ 4
谈到 4
喜爱 4
坐在 4
终 4
讲@@ 4
确@@ 4
多得 4
我到 4
聞 4
肢 4
咖啡 4
截肢 4
諷刺 4
免疫 4
瘤 4
激素 4
思@@ 4
引致 4
徹底 4
減 4
醫好 4
機制 4
輕微 4
大過 4
皮膚 4
創傷 4
攪 4
醫@@ 4
行業 4
剛才 4
但有 4
做事 4
加工 4
脂 4
引導 4
鬧 4
除此之外 4
這次 4
仔細 4
幹嘛 4
速率 4
更新 4
内部 4
持 4
保护 4
坏 4
示 4
授粉 4
你@@ 4
蜜蜂 4
排除 4
随 4
钟 4
打开 4
爱@@ 4
亡 4
动@@ 4
请@@ 4
会讲 4
同性 4
无限 4
息 4
播@@ 4
满 4
感觉 4
叶 4
经常 4
明显 4
不好 4
轻@@ 4
擦掉 4
咧 4
con@@ 4
al 4
pro@@ 4
退化 4
可能性 4
呆 4
獨裁者 4
願望 4
鑽@@ 4
展 4
夠好 4
展出 4
調整 4
香 4
領 4
火燒 4
住宅 4
周邊 4
舖 4
et 4
嚇人 4
our@@ 4
中東地區 4
見識 4
以色列人 4
辦 4
基督教 4
不得 4
司機 4
本來 4
支@@ 4
仇 4
巴西 4
殺死 4
武器 4
幾日 4
抓 4
黑@@ 4
會問 4
強姦 4
最早 4
眼睛 4
搬 4
擊@@ 4
定@@ 4
旁邊 4
尋 4
ay 4
具體 4
積極 4
屏幕 4
ou@@ 4
團體 4
遠遠 4
起始 4
冒@@ 4
乐 4
广播 4
馬上 4
學會 4
忘了 4
體內 4
效力 4
談論 4
構成 4
仍是 4
藥@@ 4
大英 4
確定 4
花園 4
餐廳 4
泰 4
搽 4
補 4
乾淨 4
指數 4
暴君 4
安靜 4
聲@@ 4
萬年 4
建國 4
出版 4
患者 4
羽毛 4
​ 4
芬 4
病例 4
隻手 4
般 4
觸覺 4
泡 4
熄 4
就用 4
錘 4
橫@@ 4
相連 4
相互作用 4
留在 4
粗@@ 4
進@@ 4
Car@@ 4
質量 4
龐大 4
會變 4
三藩市 4
21 4
足@@ 4
碎片 4
虽然 4
仍旧 4
去了 4
傾@@ 4
繞 4
十個 4
摘要 4
气@@ 4
各种 4
艺术 4
天然 4
珠 4
一齐 4
藏 4
视 4
解答 4
Hosmer 4
準確 4
落@@ 4
光線 4
鐘頭 4
悟 4
Y 4
視覺 4
啜 4
感官 4
燙 4
编写 4
any 4
进程 4
相邻 4
北 4
考虑 4
也就是说 4
op 4
disperse 4
确保 4
好奇 4
行得通 4
验证 4
编辑 4
大致 4
符合 4
tick 4
确实 4
障 4
死亡率 4
后代 4
曲线 4
按钮 4
不一定 4
粉@@ 4
季 4
清真寺 4
族群 4
性別 4
緣 4
感谢 4
總是 4
珍妮 4
點@@ 4
上班 4
一封 4
萬元 4
門口 4
真相 4
心理學家 4
弗 4
治@@ 4
一連串 4
有名 4
oo@@ 4
掃描機 4
靜 4
K 4
越@@ 4
越好 4
分為 4
可不可以 4
很可能 4
直观 4
微观 4
再来 4
刚 4
进@@ 4
很低 4
缓慢 4
只想 4
都不 4
任务 4
合适 4
有利 4
几次 4
教書 4
置疑 4
關聯 4
言@@ 4
原本 4
互@@ 4
課程 4
外語 4
目 4
單@@ 4
盛@@ 4
達成 4
前後 4
遺傳學 4
德國 4
N 4
煙@@ 4
買到 4
大陸 4
歡@@ 4
一百萬 4
還未 4
未能 4
殺手 4
事故 4
及@@ 4
某一 4
他想 4
遺留 4
總值 4
收看 4
216 4
对@@ 4
32 4
判 4
短暫 4
永恆 4
內心 4
V@@ 4
ur@@ 4
el 4
我看 4
衝 4
景@@ 4
無比 4
邪惡 4
緊張 4
如同 4
這點 4
給予 4
為何 4
te 4
ine 4
祂 4
讚@@ 4
美@@ 4
网页 4
不只是 4
有益 4
从@@ 4
共享 4
万人 4
外星人 4
教程 4
圈圈 4
玩了 4
现@@ 4
花了 4
钟摆 4
TEEB 4
保育 4
遍佈 4
綜合 4
驚人 4
損耗 4
東@@ 4
否則 4
果@@ 4
一分 4
顯著 4
今 4
來源 4
樹林 4
黃色 4
鹽 4
話說 4
確認 4
97 4
劇@@ 4
價格 4
智 4
達@@ 4
珊瑚礁 4
談判 4
兩者 4
街道 4
當作 4
三維 4
可見 4
類型 4
雜@@ 4
消除 4
河@@ 4
採@@ 4
風格 4
漂亮 4
映射 4
113.9 4
簡@@ 4
10@@ 4
建構 4
其餘 4
消費 4
公寓 4
我來 4
辦公室 4
文件 4
沙灘 4
英哩 4
en@@ 4
一座 4
幾千 4
學家 4
圈 4
厚 4
一層 4
常用 4
級 4
沿海 4
稀有 4
燃 4
海灘 4
恨 4
悲痛 4
議員 4
分散劑 4
導遊 4
殺人 4
優秀 4
漏 4
下一步 4
徑 4
荒謬 4
海岸 4
形象 4
憎 4
之類 4
抱怨 4
保守 4
每當 4
Y@@ 4
哪@@ 4
瑪 4
梅爾 4
還好 4
地下 4
靠近 4
後邊 4
無論如何 4
離子 4
麵包 4
士兵 4
三千 4
有件事 4
良好 4
總會 4
續 4
發出 4
習 4
總有 4
命運 4
屁 4
畜 4
禽 4
清單 4
可樂 4
促進 4
推廣 4
彩虹 4
幻想 4
月球 4
雙@@ 4
人造 4
染成 4
貝爾 4
批准 4
餅 4
快餐 4
塑膠 4
銷售 4
勞動 4
獨@@ 4
窄 4
世人 4
兩倍 4
留心 4
儀 4
資@@ 4
園 4
組成 4
液 4
囊 4
黐 4
絲線 4
長度 4
填@@ 4
捕 4
調查 4
尋常 4
家居 4
柔 4
遠古 4
HIV 4
包裝 4
礼物 4
静 4
愛滋病 4
預防 4
絕@@ 4
過往 4
代人 4
2001 4
像是 4
形@@ 4
是@@ 4
平時 4
木製 4
美妙 4
樹木 4
層樓 4
十億 4
建材 4
房屋 4
立方米 4
巨型 4
T 4
大廈 4
鐵塔 4
促使 4
LED 4
壽命 4
找尋 4
空地 4
頻繁 4
農@@ 4
田 4
棵 4
設立 4
創@@ 4
幫派 4
那樣 4
此處 4
情形 4
要不 4
得很 4
就讓 4
和@@ 4
替 4
前往 4
寶@@ 4
女@@ 4
人家 4
還在 4
李 4
奴 4
武藤 4
怎 4
這位 4
廢話 4
輕鬆 4
書@@ 4
臨 4
從沒 4
算是 4
搭 4
被@@ 4
親@@ 4
決@@ 4
嚕 4
培訓 4
一同 4
兒子 4
密@@ 4
指南 4
硬體 4
顆 4
螢幕 4
怎麼樣 4
高潮 4
you'@@ 4
about 4
静电 4
物体 4
金属 4
都很 4
偏@@ 4
地区 4
镁 4
求解 4
接@@ 4
未知 4
类型 4
助@@ 4
﹕ 4
一組 4
能動性 4
結論 4
減慢 4
雜誌 4
缺 4
存有 4
﹖ 4
良 4
現今 4
逐漸 4
办法 4
台詞 4
柳丁 4
演 4
比賽 4
訊 4
錄@@ 4
ar 4
週 4
奮鬥 4
年紀 4
變為 4
他要 4
萬個 4
多次 4
刑事 4
法庭 4
官 4
逮捕 4
制@@ 4
扯 4
遙@@ 4
援助 4
更為 4
完@@ 4
三角函數 4
直角 4
函數 4
单词 4
担心 4
發佈 4
並@@ 4
計算機 4
用語 4
郵 4
隨機 4
底褲 4
PostSecret 4
讀出 4
轉身 4
失 4
過來 4
演化 4
越来越 4
连结 4
不断 4
严肃 4
对待 4
宣布 4
传递 4
眼見 4
微笑 4
鄉 4
罥 4
钮 4
 4
 4
帝 4
無所謂 4
口技 4
局限 4
轉換 4
加速度 4
日本 4
咖 4
段落 4
地圖 4
0.081g 4
状况 4
上个 4
1mol 4
占据 4
阻 4
帽 4
我想去 4
六個月 4
癌癥 4
司 4
特點 4
兩伊 4
獲 4
西元前 4
政權 4
樂觀 4
1960 4
團結 4
象徵 4
代替 4
应用 4
藻類 4
氫 4
一共 4
一桶 4
相等於 4
EROEI 4
原油 4
耗用 4
乙醇 4
太陽能板 4
再生 4
十二點 4
倍增 4
最短 4
肥料 4
稈 4
石板 4
難題 4
單一 4
她的 4
在乎 4
Testpilot 4
啟 4
花费 4
沃 4
足迹 4
战略 4
诊所 4
译者 4
声 4
失败 4
体制 4
使馆 4
犯罪 4
罗 4
利比亚 4
招@@ 4
乾旱 4
公頃 4
光禿禿 4
加強 4
跑@@ 4
位數 4
著手 4
灰@@ 4
海馬 4
通道 4
靜止 4
獨 4
分隔 4
西側 4
舊金山 4
喬 4
雷 4
MM 4
授權 4
伤 4
婴儿 4
预算 4
人性化 4
信件 4
殘疾 4
提早 4
發育 4
引用 4
因数 4
創辦 4
興起 4
工人 4
指控 4
浪 4
村落 4
迦 4
供電 4
統 4
夜校 4
皇后 4
木偶 4
名单 4
路易斯安那 4
一票 4
误 4
佛罗里达 4
外部 4
哽 4
窦 4
Geoff 4
幫到 4
紅酒 4
大使館 4
上訪 4
数论 4
大师 4
帕斯 4
交配 4
羥 4
神经 4
EEG 4
浮游生物 4
莎 4
妈咪 4
OCR 4
街上 3
餘生 3
載 3
耳 3
術 3
刺@@ 3
布里 3
兆 3
聖@@ 3
另一邊 3
管狀 3
回憶 3
兩件事 3
腸 3
末@@ 3
麻@@ 3
之二 3
全身 3
剪 3
三日 3
維@@ 3
傷口 3
門@@ 3
上堂 3
吉 3
尝试 3
记录 3
澄清 3
软件 3
克利 3
就不 3
分解成 3
样子 3
web@@ 3
ke@@ 3
界@@ 3
到@@ 3
16@@ 3
针对 3
感激 3
气 3
敬 3
见面 3
列出 3
范围 3
述 3
18@@ 3
不变 3
对应 3
都不是 3
称为 3
前沿 3
雅 3
速 3
側 3
俯仰 3
偏航 3
攝像 3
室@@ 3
反光 3
估算 3
方@@ 3
優勢 3
齊 3
指揮棒 3
所需 3
容許 3
損害 3
跳水 3
屏@@ 3
糾正 3
盲目 3
擊球 3
蘋果 3
毫秒 3
動態 3
丟 3
九十 3
豬 3
算@@ 3
部位 3
為例 3
親密 3
適@@ 3
餘@@ 3
飄 3
引力 3
為止 3
在內 3
聚合 3
崇@@ 3
尚 3
發揮 3
苦@@ 3
競@@ 3
ian@@ 3
Mar@@ 3
He@@ 3
迫 3
童@@ 3
規 3
承擔 3
緊密 3
部@@ 3
汗 3
追風 3
壯@@ 3
氣味 3
敬@@ 3
eat 3
this 3
r 3
them 3
see 3
'@@ 3
at 3
ure 3
to@@ 3
ph@@ 3
ite 3
ha@@ 3
rue 3
make 3
te@@ 3
is 3
od@@ 3
Hello 3
從中 3
緩 3
毛 3
也好 3
ort 3
自在 3
嘆 3
冷氣 3
開飯 3
佬 3
衣@@ 3
阿爸 3
全力 3
要好 3
特色 3
飽 3
count 3
click 3
理工 3
確 3
隧道 3
旦 3
型號 3
香港 3
劏 3
難@@ 3
奢侈 3
交通工具 3
變遷 3
同人 3
潮流 3
校@@ 3
就由 3
枯@@ 3
養成 3
逝 3
懷@@ 3
自信心 3
增強 3
爬上 3
ili@@ 3
man@@ 3
寫成 3
man 3
壞事 3
31 3
去年 3
二手 3
部件 3
九岁 3
精心 3
传 3
讲述 3
洛杉矶 3
东部 3
筹@@ 3
大学 3
周一 3
百万 3
起了 3
热@@ 3
Bl@@ 3
Jo@@ 3
脸 3
投 3
好酷 3
孔 3
机会 3
扫描 3
老板 3
表现 3
小小的 3
路人 3
培养 3
企@@ 3
面对 3
挖掘 3
强大 3
不够 3
发明 3
项目 3
参与 3
也要 3
射 3
想象力 3
很@@ 3
飞 3
邀请 3
ard@@ 3
.com 3
机器 3
飞@@ 3
活动 3
荷 3
了@@ 3
生還者 3
逆境 3
創業 3
歲時 3
子女 3
張@@ 3
正當 3
掙扎 3
前途 3
和平 3
做生意 3
Gayle 3
鄰近 3
娃 3
當日 3
置 3
登@@ 3
無處 3
卑微 3
強而有力 3
更遠 3
融@@ 3
資 3
生產力 3
據 3
勢 3
潛力 3
參 3
就當 3
盡量 3
丈夫 3
低估 3
2,@@ 3
做好 3
婚禮 3
Marc@@ 3
紀@@ 3
爭論 3
盲 3
無聊 3
夫婦 3
鄰居 3
魅力 3
要素 3
勻 3
正面 3
肯@@ 3
流程 3
眼@@ 3
快門 3
一大堆 3
et@@ 3
ie 3
all@@ 3
sp@@ 3
咒 3
破碎 3
想再 3
恐怖 3
苦 3
興 3
已婚 3
更高 3
長命 3
恐@@ 3
底@@ 3
維護 3
it 3
拆@@ 3
有生之年 3
聯@@ 3
圣 3
州@@ 3
監 3
教訓 3
監@@ 3
禁 3
本質 3
開端 3
格爾 3
邏輯 3
尼@@ 3
矛盾 3
即@@ 3
CH 3
4，@@ 3
取决 3
脑@@ 3
调@@ 3
练习 3
只不过 3
涉及 3
单独 3
类 3
化学 3
说的 3
断 3
想把 3
换个 3
形状 3
价 3
然@@ 3
后@@ 3
对方 3
嗨 3
诸 3
论 3
认 3
上课 3
紧@@ 3
很少 3
价值 3
2006 3
春天 3
凌@@ 3
晨 3
病情 3
對待 3
後期 3
無辜 3
療法 3
凡@@ 3
懷疑 3
顧@@ 3
血糖 3
默 3
氏 3
急@@ 3
會對 3
更深 3
獲取 3
深遠 3
骸 3
擴散 3
要問 3
澱粉 3
短時間 3
經@@ 3
賭 3
指引 3
進食 3
批判 3
針對 3
一批 3
護@@ 3
J 3
访问 3
设计 3
一块 3
损@@ 3
管@@ 3
蒸@@ 3
惊 3
诱惑 3
想起 3
煤@@ 3
承 3
住在 3
园 3
贝 3
领@@ 3
L 3
老师 3
成绩 3
刚刚 3
讲到 3
类似 3
略 3
演繹 3
兩邊 3
僅 3
右@@ 3
工作室 3
增 3
姐 3
噴 3
畫布 3
歷@@ 3
x@@ 3
框 3
畫廊 3
大街 3
炸彈 3
攻擊 3
蕩 3
後面 3
os@@ 3
qu@@ 3
海報 3
落腳 3
籌@@ 3
有史 3
跑到 3
貼緊 3
圍@@ 3
搣 3
太高 3
展覽 3
團 3
NGO 3
廣場 3
做完 3
蘇@@ 3
肯尼亞 3
激發 3
慾望 3
貝拉 3
落手 3
烯 3
品牌 3
明確 3
倫敦 3
態 3
處於 3
鼓 3
上線 3
单@@ 3
麻烦 3
严格 3
总共 3
洞穴 3
宣@@ 3
买@@ 3
沟通 3
节@@ 3
動力學 3
何謂 3
便是 3
審視 3
ics 3
濃@@ 3
施展 3
價 3
北極 3
冰@@ 3
放心 3
Z 3
冷 3
規矩 3
鬚 3
過後 3
曲 3
洗手 3
丹麥 3
極端 3
經濟學 3
迷 3
統治 3
簡短 3
嘈 3
應@@ 3
衛生 3
發布 3
憲法 3
卵 3
激@@ 3
口感 3
麻醉 3
催眠 3
賺錢 3
掃 3
掃過 3
慢性 3
伸@@ 3
手腕 3
扭@@ 3
E 3
包@@ 3
痛@@ 3
摸@@ 3
擴展到 3
再到 3
惨 3
壁 3
關閉 3
純粹 3
縱@@ 3
膠質 3
調@@ 3
放大 3
回應 3
停@@ 3
休@@ 3
眠 3
密集 3
視頻 3
午@@ 3
餐 3
未来 3
樣子 3
委@@ 3
IPCC 3
多位 3
核 3
課題 3
異 3
op@@ 3
很小 3
破 3
燃@@ 3
超级 3
幾十 3
為此 3
掛 3
十萬 3
M 3
130 3
僅@@ 3
冠 3
章節 3
计 3
协@@ 3
稳 3
图像 3
写@@ 3
纵 3
随着 3
转化 3
博物 3
馆 3
雕塑 3
发挥 3
观 3
記@@ 3
彈 3
五個 3
放大鏡 3
五種 3
度@@ 3
觀感 3
設計師 3
喜@@ 3
味覺 3
逼 3
味道 3
夜@@ 3
勝@@ 3
套用 3
斗 3
嘴 3
刷 3
鍵 3
幾種 3
other 3
【 3
】 3
过度 3
拥挤 3
极端 3
状 3
注释 3
查看 3
查阅 3
相应 3
项 3
去除 3
360 3
变大 3
生产 3
环节 3
没什么 3
伴@@ 3
compete 3
导致 3
规则 3
期望 3
望@@ 3
移到 3
关@@ 3
标@@ 3
爹地 3
第二次 3
便@@ 3
爆 3
書籍 3
一對 3
善良 3
伊斯蘭教 3
興@@ 3
印度教 3
提@@ 3
巴基斯坦 3
毛@@ 3
扮演 3
冊 3
培養 3
同理 3
謝謝 3
不僅 3
軟體 3
毫@@ 3
都市 3
抽@@ 3
謹慎 3
數@@ 3
很簡單 3
熟@@ 3
滅 3
誤 3
紀錄 3
黏土 3
埃 3
遇 3
伯特 3
Albert 3
傢伙 3
受訪者 3
雙向 3
鏡 3
效能 3
暢 3
激動 3
八成 3
鎮靜劑 3
將@@ 3
海盜 3
戲劇 3
輪到 3
療 3
使命 3
保健 3
較好 3
隨@@ 3
訂@@ 3
就叫 3
会不会 3
力学 3
无聊 3
先看 3
深蓝色 3
洋 3
讲的 3
关键 3
不止 3
高温 3
超高 3
由@@ 3
够 3
来@@ 3
变的 3
试@@ 3
实验 3
就不是 3
符 3
遺@@ 3
科威特 3
協會 3
演變成 3
處@@ 3
藉 3
供給 3
伊斯蘭 3
黃金 3
阿拉伯文 3
順便 3
讀@@ 3
托@@ 3
卻@@ 3
焦點 3
頒 3
帶領 3
明日 3
進度 3
一輛 3
行駛 3
檢視 3
頭號 3
不喜歡 3
不然 3
移除 3
課@@ 3
％ 3
徵@@ 3
公开 3
http 3
81 3
2A 3
法则 3
270 3
其实是 3
益 3
壯 3
苦難 3
世@@ 3
俗 3
仍有 3
居所 3
天堂 3
出於 3
此地 3
懷 3
片@@ 3
創 3
必 3
撫慰 3
這段 3
勇敢 3
犧牲 3
An@@ 3
伴 3
冷靜 3
好人 3
牽@@ 3
遊@@ 3
遭@@ 3
忙 3
其它 3
坦白 3
第四次 3
鄉村 3
例@@ 3
難道 3
復@@ 3
樂 3
論@@ 3
神聖 3
祝福 3
电波 3
频道 3
配 3
四百 3
威胁 3
紫色 3
过来 3
登入 3
衍生 3
ent 3
浏览 3
曾@@ 3
经 3
手机 3
天哪 3
运作 3
Who 3
建议 3
动画 3
勤 3
一向 3
重要性 3
眾多 3
各個 3
亞馬遜 3
庫存 3
多樣性 3
蒸氣 3
降雨 3
誘@@ 3
昆蟲 3
另一面 3
迅速 3
農民 3
量度 3
百分比 3
對比 3
即是 3
17@@ 3
撒哈拉 3
九年 3
颱風 3
私人 3
COST 3
句@@ 3
附 3
煉 3
標準 3
並無 3
最有 3
帳單 3
前進 3
趣 3
九個月 3
根源 3
林@@ 3
一事 3
彪 3
亨 3
營@@ 3
額 3
兩億 3
已有 3
特許 3
歐盟 3
交易 3
脹 3
全都 3
四分@@ 3
稍後 3
進展 3
工@@ 3
350 3
擇 3
完結 3
旁 3
平面 3
就將 3
我看到 3
下半 3
Jerison 3
arctan 3
对角线 3
周期 3
这@@ 3
提前 3
1.@@ 3
談 3
下來 3
魷魚 3
98 3
鎮 3
22 3
用作 3
儲 3
足跡 3
等同於 3
420 3
餐@@ 3
搬@@ 3
繁@@ 3
順@@ 3
序 3
這些東西 3
魔法 3
踏入 3
不妨 3
過得 3
採用 3
好運 3
呈@@ 3
現出 3
洲 3
四千 3
尤 3
法老 3
署 3
地形 3
微微 3
泥 3
石材 3
珠寶 3
址 3
莫@@ 3
1984 3
公元前 3
棲息 3
落水 3
燃燒 3
蛤 3
pH 3
海膽 3
退 3
海岸線 3
世界末日 3
加侖 3
服 3
拖@@ 3
麻煩 3
魚@@ 3
幾分鐘 3
三成 3
產卵 3
曲線 3
捕魚 3
之多 3
日本人 3
用於 3
引人@@ 3
十三 3
源於 3
局面 3
律法 3
衛 3
免 3
傑 3
廢@@ 3
觀看 3
加到 3
步@@ 3
窗@@ 3
山峰 3
三百 3
落到 3
92 3
星期五 3
剛 3
航@@ 3
腳@@ 3
溫 3
伯@@ 3
那種 3
太大 3
NASA 3
以至於 3
鎖匙 3
彗星 3
秒鐘 3
個月 3
十足 3
讀過 3
推力 3
星際 3
飛船 3
滅亡 3
靈魂 3
謙遜 3
東歐 3
脈 3
俄羅斯 3
一人 3
筆@@ 3
羅@@ 3
癮 3
商人 3
份子 3
出席 3
提起 3
同好 3
十八 3
櫃 3
喪 3
大膽 3
先用 3
素食 3
繼 3
有毒 3
短缺 3
成份 3
胡@@ 3
肉食 3
撥@@ 3
亂@@ 3
衰 3
業界 3
吃@@ 3
著眼 3
製@@ 3
麻 3
心臟 3
牛油 3
七十 3
全國性 3
法例 3
薯 3
橙 3
鐵路 3
西部 3
農場 3
罐頭 3
大豆 3
國會 3
出面 3
雪糕 3
食材 3
乳酪 3
仁 3
命@@ 3
黏@@ 3
叮 3
黨 3
更能 3
推薦 3
足印 3
打印機 3
印出 3
墨@@ 3
北美洲 3
蟹 3
甲@@ 3
標 3
半徑 3
出離 3
咀 3
壺 3
腹 3
氨基酸 3
丙 3
延展性 3
強度 3
延 3
吐 3
相当 3
看似 3
折成 3
等@@ 3
补@@ 3
成年人 3
93 3
設施 3
居民 3
狄 3
出奇 3
汀 3
廉價 3
誠 3
私@@ 3
具 3
客戶 3
脑海 3
供@@ 3
应 3
启发 3
复 3
慢性病 3
發病率 3
造@@ 3
三份 3
統計 3
主席 3
營業 3
個體 3
象@@ 3
玩具 3
雪@@ 3
摷 3
十四 3
點燃 3
幢 3
老實 3
建成 3
四年 3
打破 3
節省 3
照明 3
長達 3
盞 3
胸 3
荒蕪 3
馬路 3
佛 3
敗 3
竟然 3
26 3
番茄 3
種@@ 3
豆 3
花圃 3
鬼@@ 3
士@@ 3
講話 3
耕種 3
義@@ 3
改寫 3
鏟 3
指导 3
註冊 3
商@@ 3
待@@ 3
埋伏 3
無懈可擊 3
而來 3
fu 3
奪 3
稱呼 3
高速 3
秀 3
戰士 3
品質 3
偷了 3
混蛋 3
他不 3
穿越 3
偷@@ 3
條@@ 3
紅龍 3
特里 3
時速 3
超速 3
夠了 3
那兒 3
發動 3
噁 3
可沒 3
我沒 3
說了 3
我不是 3
倒@@ 3
OK 3
察@@ 3
早晚 3
遲 3
召 3
到來 3
沒事 3
個性 3
休息 3
啊哈 3
腔 3
玩意 3
然是 3
愚蠢 3
星球 3
戰鬥 3
聽錯 3
戀 3
得知 3
場面 3
好友 3
拜託 3
想你 3
副@@ 3
其實是 3
something 3
初學者 3
塌 3
爽 3
勝利 3
沒辦法 3
耗 3
沒人 3
會說 3
儘管 3
糟糕 3
極限 3
誕生 3
農夫 3
創立 3
運轉 3
拖拉機 3
了解到 3
合適 3
低成本 3
組@@ 3
造出 3
一台 3
鏈 3
爛的 3
悲哀 3
狼人 3
衣服 3
想去 3
脫 3
Michael 3
our 3
can 3
kno@@ 3
来源 3
含 3
电学 3
习惯 3
磁化 3
不解 3
排斥 3
质子 3
理论 3
不行 3
带来 3
观@@ 3
一角 3
善 3
跟進 3
指示 3
煩惱 3
牙科 3
牙齒 3
淋@@ 3
淋 3
依照 3
帶動 3
概@@ 3
懂得 3
抽象 3
不單 3
車速 3
藥品 3
血液 3
連線 3
裡@@ 3
無須 3
爭議 3
檢測 3
少於 3
賺@@ 3
催@@ 3
運用 3
接着 3
大道 3
实现 3
梨子 3
拍@@ 3
試試看 3
弄 3
預備 3
FANS 3
ang@@ 3
現金 3
歸屬 3
我愛你 3
父親 3
終止 3
哥哥 3
都不會 3
殺@@ 3
下了 3
單單 3
LRA 3
射殺 3
年間 3
奴隸 3
別人 3
殺害 3
罪行 3
勢力 3
歇 3
軍@@ 3
謀殺 3
找@@ 3
制止 3
議題 3
外交 3
付@@ 3
這場 3
發聲 3
重建 3
墨西哥 3
交談 3
參@@ 3
接触 3
5，@@ 3
适用 3
三分之一 3
Tri@@ 3
餘弦 3
切線 3
SOH 3
分辨 3
99.5 3
医生 3
临@@ 3
星期六 3
禮物 3
麻省理工 3
搜尋 3
小貓 3
親手 3
Do@@ 3
俱樂部 3
小魚 3
學點 3
會贏 3
Frank 3
打印 3
匿名 3
郵票 3
等到 3
形態 3
養@@ 3
無線 3
尷尬 3
求婚 3
迫@@ 3
語音 3
延@@ 3
依存 3
哪些 3
州立大學 3
表情 3
面部 3
三分一 3
達爾文 3
回饋 3
獎@@ 3
心情 3
減低 3
皮質 3
親切 3
ぐ 3
 3
ê 3
┮ 3
讽 3
 3
挡 3
狦 3
硂 3
 3
ネ 3
ぇ 3
智慧 3
商店 3
牢固 3
音@@ 3
樣@@ 3
腦海 3
第八 3
準 3
反面 3
資助 3
PV 3
nRT 3
题目 3
98mL 3
22.4L 3
忆 3
精确 3
漂浮 3
年來 3
穩 3
實話 3
征服 3
合格 3
礦物 3
鐵@@ 3
礦 3
大海 3
世間 3
太子 3
導@@ 3
鑽探 3
憂慮 3
寵@@ 3
精明 3
慨 3
掠 3
俘虜 3
宴會 3
打仗 3
強盛 3
既@@ 3
重返 3
猶太教 3
統一 3
治理 3
入侵 3
曾有 3
可信 3
陳述 3
多麼 3
產@@ 3
感興趣 3
德黑蘭 3
包容 3
會不會 3
保有 3
困惑 3
顺序 3
是不 3
面向 3
中指 3
大拇指 3
或@@ 3
分量 3
In@@ 3
協@@ 3
漸漸 3
河水 3
ind@@ 3
1970 3
最高峰 3
1973 3
居住 3
所用 3
較@@ 3
立方 3
1.6 3
提取 3
近期 3
發電廠 3
增@@ 3
風力 3
2050 3
電力 3
政客 3
面臨 3
付清 3
無限 3
米粒 3
三次 3
末 3
地下水 3
乾 3
不良 3
礦物質 3
還款 3
惡化 3
混合 3
八十 3
邁向 3
好得 3
直覺 3
匿 3
五萬 3
圖@@ 3
夕陽 3
象形 3
三千年 3
牧羊人 3
Alice 3
Narmer 3
害怕 3
军 3
时代 3
悲@@ 3
主义 3
三天 3
进展 3
竞选 3
浪费 3
兰 3
Mullah 3
Mustafa 3
部署 3
Paul 3
慈善 3
机构 3
负责 3
淡 3
德@@ 3
任期 3
部门 3
难民 3
预测 3
进去 3
没@@ 3
繼而 3
黑人 3
膚色 3
拋棄 3
面試 3
桑 3
生物學 3
合一 3
共存 3
詞語 3
荒地 3
蒸發 3
遮掩 3
加快 3
山羊 3
爾@@ 3
四萬 3
旱季 3
一提 3
要花 3
題材 3
至今 3
34 3
光速 3
安裝 3
微弱 3
建立起 3
紐 3
於此 3
水準 3
CA 3
一年半 3
連同 3
保险 3
残 3
交保 3
IRA 3
为@@ 3
费 3
细节 3
弥补 3
预期 3
国债 3
1,2,3,4 3
1,2,3 3
不见了 3
运算 3
现象 3
點到 3
信貸 3
化繁為簡 3
熱點 3
官@@ 3
85 3
介入 3
案件 3
抑鬱症 3
偵測 3
初期 3
槌 3
也能 3
圣诞 3
基督 3
2300 3
梅 3
應該會 3
逐個 3
一句話 3
驚奇 3
上海 3
五星級 3
長城 3
電視台 3
配合 3
郭 3
打工 3
0.@@ 3
戒 3
截 3
GDP 3
井 3
開辦 3
學歷 3
1986 3
權威 3
防水 3
選@@ 3
內閣 3
三位 3
首相 3
票选 3
并非 3
人数 3
众议院 3
票数 3
决 3
胜 3
共和 3
输 3
49 3
结束 3
麦 3
萨 3
注意力 3
生産 3
成就感 3
玩耍 3
成熟 3
反義詞 3
壓抑 3
玩家 3
關于 3
青春期 3
帶入 3
爆笑 3
學前 3
放假 3
高中 3
煩 3
金磚 3
有病 3
新詞 3
埲 3
高鐵 3
公佈 3
山寨 3
莎士比亞 3
规律 3
一行 3
詩 3
眞 3
腦袋 3
驅動 3
為愛 3
聯系 3
break 3
生理学 3
舞臺 3
屆 3
男子 3
櫥窗 3
依次 3
電梯 3
水母 3
寶寶 3
反对 3
宽容 3
侮辱 3
Hacker 3
出錯 3
譯者 3
10900 3
某某 2
郊區 2
筒 2
打結 2
魔@@ 2
醫科 2
縫合 2
行人 2
救護車 2
曼哈頓 2
聖 2
隊@@ 2
打傷 2
肺部 2
還擊 2
插 2
視力 2
擔@@ 2
水災 2
籌款 2
保住 2
醉@@ 2
墜入 2
湖 2
辛 2
拉開 2
檢查 2
私家 2
擊掌 2
出院 2
惡夢 2
投訴 2
擾 2
痕 2
卫 2
每周 2
可爱 2
ub@@ 2
步调 2
承认 2
高兴 2
自如 2
Tu@@ 2
片段 2
ca@@ 2
.edu 2
跳出 2
Com@@ 2
Sc@@ 2
ienc@@ 2
编@@ 2
观看 2
感兴趣 2
尽@@ 2
务 2
样@@ 2
积极 2
好像是 2
并@@ 2
肩 2
战 2
寄@@ 2
为止 2
体验 2
真的是 2
下周 2
祝@@ 2
考试 2
运 2
采@@ 2
专家 2
14@@ 2
ab 2
看一看 2
，@@ 2
只剩 2
犯了 2
检测 2
施加 2
顺着 2
最远 2
am@@ 2
87 2
总和 2
71 2
傳感器 2
天花板 2
物件 2
學科 2
藉@@ 2
雞@@ 2
頂@@ 2
座標 2
穩@@ 2
技 2
揮 2
走向 2
漏@@ 2
性能 2
受傷 2
壯舉 2
極度 2
損壞 2
滾轉 2
只用 2
配置 2
空翻 2
翻轉 2
壓住 2
快到 2
頻@@ 2
飛去 2
三步 2
軌@@ 2
當個 2
跌到 2
姿勢 2
虛擬 2
粘@@ 2
實體 2
加大 2
一口@@ 2
磨練 2
技@@ 2
濫用 2
小組 2
現任 2
gu@@ 2
aro 2
Dar@@ 2
up@@ 2
hin 2
Ro@@ 2
z 2
原動力 2
弱勢 2
違@@ 2
公正 2
濟 2
締造 2
製造@@ 2
長島 2
天空 2
胞 2
柚 2
冰雹 2
龍@@ 2
5,000 2
阻@@ 2
擋 2
質感 2
溫暖 2
吹 2
青草 2
雲層 2
松 2
藍 2
閃@@ 2
乳@@ 2
銀@@ 2
太陽@@ 2
mars 2
ta@@ 2
sty 2
children 2
want 2
video 2
il 2
burn 2
brains 2
lick 2
will 2
ace 2
let 2
ma@@ 2
po@@ 2
bye 2
u 2
up 2
watching 2
tor 2
do 2
lie 2
not 2
live 2
ones 2
ood 2
with 2
des 2
away 2
ian 2
if@@ 2
id@@ 2
turn 2
ot@@ 2
un@@ 2
athena 2
princ@@ 2
sh@@ 2
ver 2
new 2
destro@@ 2
特徵 2
思路 2
貫穿 2
垃圾筒 2
十幾歲 2
賺 2
媽 2
忟 2
功課 2
殊 2
完好 2
親身經歷 2
感想 2
劣 2
大火 2
燒@@ 2
坦白講 2
出路 2
兜 2
com@@ 2
背 2
徒@@ 2
幫手 2
上述 2
ff@@ 2
氣象 2
太快 2
email 2
inter@@ 2
net 2
耐性 2
朝@@ 2
隧 2
一回 2
購 2
萬一 2
財產 2
mother 2
十步 2
心急 2
心目中 2
證 2
百步 2
狂 2
路線 2
熱狗 2
搭@@ 2
掛鉤 2
鉤 2
響@@ 2
sec 2
戒@@ 2
更難 2
座@@ 2
呆子 2
富 2
數以@@ 2
萬計 2
日內 2
67 2
慘不忍睹 2
聚會 2
John 2
無窮 2
糖果 2
拍手 2
把手 2
他用 2
顾客 2
今晚 2
伟大 2
电话 2
捐款 2
直播 2
画@@ 2
名人 2
也在 2
转发 2
伦敦 2
西班牙 2
飞机 2
Jack 2
ack 2
创意 2
激发 2
jo 2
泡@@ 2
篮@@ 2
倾@@ 2
用纸 2
Is@@ 2
ra 2
Beau 2
员工 2
默@@ 2
结@@ 2
寻找 2
当代 2
天性 2
远@@ 2
远 2
体系 2
植 2
开展 2
登陆 2
仅@@ 2
发@@ 2
鼓@@ 2
门@@ 2
举办 2
闪 2
一周年 2
发起 2
一起来 2
纪 2
坎@@ 2
干@@ 2
乐园 2
突出 2
毫不 2
奔馳 2
從小 2
生計 2
先要 2
盧 2
旺 2
77 2
時報 2
採訪 2
各國 2
為國家 2
女子 2
熱情 2
冒 2
蕭@@ 2
洋@@ 2
Narcisa 2
薩@@ 2
開創 2
專 2
床@@ 2
酒@@ 2
論壇 2
send 2
故意 2
固有 2
聯想 2
弱@@ 2
伸展 2
範疇 2
韓 2
了不起 2
尋求 2
陷阱 2
國務院 2
貸款 2
資產 2
合約 2
抵@@ 2
押 2
回報 2
填補 2
可憐 2
阿姨 2
好比 2
半個 2
放膽 2
講座 2
7,000 2
新人 2
女方 2
降臨 2
夥伴 2
誓 2
天真 2
應承 2
熱戀 2
鼻 2
擲 2
半數 2
週@@ 2
爭執 2
嚼 2
維繫 2
會會 2
追蹤 2
得以 2
太太 2
來得 2
身形 2
節@@ 2
跑步 2
嘩 2
親愛 2
任由 2
毀於一旦 2
星空 2
越是 2
換言之 2
濫 2
吻@@ 2
派對 2
虛偽 2
女演員 2
Dav@@ 2
erry 2
ill@@ 2
Sw@@ 2
Sand@@ 2
ock 2
oon 2
單身 2
殘酷 2
謀殺@@ 2
飲酒 2
讀完 2
染 2
幾率 2
百分點 2
終身 2
質@@ 2
培育 2
活得 2
身材 2
尾@@ 2
樂意 2
廷 2
搶 2
記住 2
釋 2
囚犯 2
法會 2
敵人 2
厭倦 2
康@@ 2
頭頂 2
大地 2
蘇格拉底 2
謬論 2
混雜 2
焦慮 2
形而@@ 2
柏@@ 2
出手 2
重合 2
分开 2
写在 2
很像 2
当中 2
上边 2
重叠 2
种@@ 2
方位 2
椅 2
断@@ 2
稍 2
对称 2
中间 2
无论 2
一周 2
疯狂 2
妨碍 2
不利 2
别人 2
那儿 2
反复 2
回顾 2
强@@ 2
鼓励 2
记@@ 2
乱 2
资料 2
课本 2
顺利 2
货币 2
外科 2
駐 2
潰@@ 2
簾 2
腰@@ 2
毯 2
一杯 2
評價 2
傲慢 2
黑色素 2
奪去 2
讀到 2
病理 2
次序 2
成形 2
折@@ 2
體重 2
症候群 2
生理 2
分區 2
生活習慣 2
舊有 2
適用 2
推理 2
減@@ 2
癲 2
流行病 2
爆發 2
抵禦 2
險 2
蓄 2
脂肪 2
欠缺 2
趕@@ 2
研發 2
客廳 2
因果關係 2
提及 2
葡萄糖 2
糖份 2
運動@@ 2
得起 2
現@@ 2
最優秀 2
一班 2
頂尖 2
見解 2
精密 2
陳@@ 2
普及 2
終點 2
過重 2
罪@@ 2
徵兆 2
罰 2
臨床 2
憐憫 2
來看 2
參數 2
雇@@ 2
设@@ 2
备 2
房间 2
自行 2
随@@ 2
磁@@ 2
硬@@ 2
摧毁 2
一直在 2
冷却 2
水温 2
升高 2
蝙蝠 2
蜂@@ 2
鸟 2
蝶 2
拍摄 2
推移 2
孜@@ 2
叹 2
美丽 2
衰@@ 2
面临 2
严重 2
危@@ 2
险 2
Taylor 2
传@@ 2
机制 2
肉眼 2
瞬间 2
华 2
欣赏 2
花@@ 2
义 2
因子 2
student 2
grade 2
SAT 2
他有 2
极大 2
简@@ 2
洁 2
师 2
100,000 2
众多 2
勤@@ 2
奋 2
脚@@ 2
只不过是 2
好看 2
将@@ 2
附加 2
iti@@ 2
ab@@ 2
tion 2
缩写 2
省@@ 2
ain 2
Mc@@ 2
st 2
JR 2
TED@@ 2
天下 2
樓頂 2
印記 2
簡易 2
de 2
涂 2
彩色 2
鑒@@ 2
榭 2
佔@@ 2
暴亂 2
驚@@ 2
恐 2
汽油 2
消防@@ 2
徒 2
忽然 2
天使 2
惡魔 2
焦@@ 2
誇張 2
購物 2
姓名 2
龐 2
紙@@ 2
漿糊 2
誠意 2
扮@@ 2
非法 2
名稱 2
面對面 2
開槍 2
你搞 2
軍事 2
落雨 2
遲@@ 2
眼淚 2
遍 2
慘@@ 2
抓住 2
抵達 2
證@@ 2
幾張 2
好朋友 2
大叫 2
毒販 2
代表性 2
直升機 2
電視機 2
就走 2
無名@@ 2
昂 2
紛@@ 2
冥@@ 2
同伴 2
好奇心 2
軍人 2
隻眼 2
塑@@ 2
旅遊 2
突@@ 2
一班人 2
層次 2
贊助 2
市政府 2
Man 2
尖塔 2
瑞@@ 2
毒@@ 2
no@@ 2
實行 2
人像 2
si@@ 2
總和 2
罕见 2
则会 2
小段 2
malloc 2
声明 2
指针 2
下标 2
皆有 2
GNU 2
跨 2
歌@@ 2
争@@ 2
谈 2
簡稱 2
名詞 2
區別 2
pharmaco 2
kin@@ 2
源自 2
希臘文 2
有所不同 2
預期 2
藉以 2
人體 2
乃 2
療效 2
听讲 2
PA@@ 2
飽@@ 2
屈辱 2
入手 2
百科全書 2
缺@@ 2
我留 2
摩西 2
修@@ 2
血壓 2
份量 2
寫書 2
甩 2
抹 2
遙控 2
安全帽 2
總體 2
過份 2
性行為 2
一一 2
列@@ 2
火車 2
噪 2
之上 2
脆 2
病倒 2
兒科 2
斯坦福 2
腫瘤 2
炎症 2
好幾個 2
高溫 2
練 2
AC@@ 2
止@@ 2
褪色 2
張力 2
觸 2
袖 2
誤解 2
導線 2
佈@@ 2
燈@@ 2
激活 2
药 2
局@@ 2
嚴格 2
心裡 2
来自 2
昨@@ 2
太好了 2
George 2
预@@ 2
多谢 2
蘊含 2
研 2
霧 2
分支 2
近來 2
專門 2
系@@ 2
寫出 2
審@@ 2
稿 2
is@@ 2
由此 2
分解 2
爆@@ 2
1.5 2
佔據 2
整合 2
瞭望塔 2
熱帶雨林 2
儀器 2
上方 2
觀察到 2
實地考察 2
配備 2
BA@@ 2
FA@@ 2
120 2
乘坐 2
這一 2
讀者 2
決策 2
度数 2
珠@@ 2
抽取 2
海上 2
浮@@ 2
对比 2
既有 2
介@@ 2
竹 2
篮 2
横 2
赋予 2
芦苇 2
建构 2
搭建 2
之内 2
一圈 2
细@@ 2
奏 2
界定 2
研習 2
吋 2
中午 2
大概會 2
立場 2
香油 2
散發 2
靈感 2
然大@@ 2
日記 2
Jinsop 2
嘻 2
嗅覺 2
麵 2
蒲 2
親吻 2
埋@@ 2
啩 2
搜集 2
境@@ 2
引@@ 2
習@@ 2
青 2
三種 2
噴@@ 2
香@@ 2
兩次 2
牙刷 2
哂 2
長笛 2
單簧管 2
竞争 2
多重 2
If 2
die 2
turt@@ 2
邻居 2
neighbors 2
杠 2
空余 2
极@@ 2
以便 2
proc@@ 2
patch 2
易@@ 2
初@@ 2
les 2
计数 2
找不到 2
测 2
population 2
是有 2
有何 2
reset 2
没错 2
,@@ 2
故@@ 2
reproduction 2
set 2
猜测 2
规定 2
comp@@ 2
杀死 2
平整 2
不完全 2
期@@ 2
静止 2
um 2
更改 2
迁移 2
Ste@@ 2
混淆 2
go 2
容量 2
藝術家 2
泡泡 2
算了 2
異性 2
修女 2
兄弟 2
姐妹 2
教會 2
盛 2
慶典 2
隔壁 2
夏@@ 2
哭 2
旺@@ 2
入來 2
Rags 2
宣稱 2
同感 2
禮@@ 2
貌 2
嘴@@ 2
家中 2
做對 2
瀏覽器 2
猶@@ 2
井@@ 2
有序 2
外表 2
防護 2
電子郵件 2
鎖@@ 2
慮 2
試著 2
駭客 2
或許是 2
智@@ 2
都說 2
怎麼 2
俄亥@@ 2
盆 2
膀 2
垃圾桶 2
洛伊 2
Fre@@ 2
走去 2
焊接 2
手套 2
膝@@ 2
術@@ 2
self 2
efficacy 2
信心 2
Dietz 2
GE 2
驕傲 2
非凡 2
頸 2
肌@@ 2
專案 2
發展中國家 2
重拾 2
讓人 2
飛揚 2
几集 2
变小 2
我还是 2
吸 2
可得 2
蛋 2
想想看 2
一想 2
貌@@ 2
少了 2
大于 2
数目 2
棕色 2
从一 2
向左 2
感性 2
很慢 2
拼@@ 2
sponteous 2
taneous 2
学术 2
不在意 2
家伙 2
飘到 2
产物 2
掉了 2
很高 2
车@@ 2
本来 2
撞@@ 2
装 2
管用 2
胎 2
逆 2
还@@ 2
说@@ 2
负@@ 2
必然 2
挺好 2
导@@ 2
遇上 2
波斯灣 2
扎@@ 2
詞彙 2
祖父母 2
世代 2
派@@ 2
現代化 2
專利 2
商機 2
匙 2
排名 2
母語 2
天才 2
換個 2
把@@ 2
升學 2
期刊 2
照亮 2
尤其在 2
主流 2
夠多 2
武@@ 2
愛因斯坦 2
補@@ 2
196@@ 2
氾濫 2
費@@ 2
價錢 2
否@@ 2
係留 2
中學 2
外國 2
卻有 2
多元化 2
車禍 2
喪生 2
投身 2
無人駕駛 2
DARPA 2
硬件 2
轉向 2
幻 2
繁忙 2
耗費 2
倫 2
村莊 2
回首 2
傢 2
遺留下來 2
股@@ 2
房@@ 2
死後 2
這會 2
此時 2
多少@@ 2
豁免 2
50@@ 2
便會 2
高於 2
免@@ 2
350000 2
5.@@ 2
官方 2
163 2
com 2
open 2
9x2 2
9x 2
x2 2
B2 2
297 2
看出 2
弄@@ 2
可见 2
总结 2
但愿 2
288 2
检验 2
总@@ 2
第一線 2
牧師 2
勿 2
表面上 2
日漸 2
光芒 2
有形 2
毀 2
超凡 2
充滿著 2
小鎮 2
獻@@ 2
撕裂 2
哭@@ 2
抱著 2
務@@ 2
小學 2
run@@ 2
Mary 2
ick@@ 2
Mur@@ 2
關愛 2
安撫 2
傷@@ 2
驚嚇 2
忍@@ 2
魂@@ 2
整天 2
珍貴 2
曝露 2
病痛 2
畏@@ 2
辦到 2
這一點 2
幫@@ 2
負起 2
優先 2
願@@ 2
我當 2
濫@@ 2
安慰 2
無止@@ 2
槍@@ 2
悲劇 2
太難 2
功虧一簣 2
出發點 2
跌@@ 2
犯錯 2
暗@@ 2
良@@ 2
做錯 2
lot@@ 2
es@@ 2
James 2
ess@@ 2
回家 2
走下去 2
堅 2
共 2
听@@ 2
区@@ 2
兼@@ 2
有线 2
途径 2
谁@@ 2
资@@ 2
权力 2
谁会 2
新闻 2
挑 2
恶 2
己@@ 2
亚马逊 2
听说 2
带@@ 2
大众 2
本质 2
跟着 2
co@@ 2
talkthrou@@ 2
gh@@ 2
声音 2
gh 2
mouse@@ 2
从中 2
吸取 2
教训 2
阶 2
版画 2
原有 2
搜索 2
发布 2
从来 2
见过 2
跳跃 2
玩过 2
模拟 2
Dr 2
幻觉 2
再把 2
Qu@@ 2
estions 2
版面 2
粘贴 2
链 2
Fe@@ 2
夸@@ 2
困难 2
重重 2
恒 2
發票 2
高達 2
海嘯 2
揭示 2
孕育 2
一如 2
農產 2
六成 2
毫 2
所得 2
漁產 2
蠶@@ 2
指望 2
正統 2
賴 2
老虎 2
不變 2
以南 2
福祉 2
泰國 2
紅樹林 2
8000 2
補貼 2
衡@@ 2
1200 2
蝦 2
防範 2
窮@@ 2
漁獲 2
出發 2
TR@@ 2
外在 2
勾@@ 2
污染物 2
雖 2
自然界 2
國內生產 2
負擔 2
WA@@ 2
商界 2
棘手 2
個案 2
足足 2
5,@@ 2
明智 2
砍伐 2
當初 2
愈@@ 2
華 2
兩家 2
茲 2
政 2
總裁 2
聯盟 2
帳 2
欣@@ 2
大約是 2
酸化 2
RE@@ 2
Plus 2
挪威 2
投放 2
仍@@ 2
紅點 2
含@@ 2
資本 2
麼 2
十五歲 2
摞 2
繪畫 2
摁 2
施@@ 2
意想不到 2
灰暗 2
捕@@ 2
機關 2
幻象 2
視角 2
解讀 2
拼圖 2
仍然是 2
欺騙 2
不合理 2
搞好 2
怪怪 2
設法 2
縫 2
辨別 2
交界處 2
亮度 2
缺陷 2
妥協 2
旅途 2
拍到 2
讲座 2
直线 2
渐进 2
斜率 2
总比 2
级 2
导数 2
另一边 2
渐近线 2
相交 2
原点 2
交叉 2
扼@@ 2
待會 2
ee@@ 2
Brendan 2
炒@@ 2
輩 2
群@@ 2
Netscape 2
1.0 2
很長 2
成像 2
一筆 2
產業 2
偶然 2
悠閒 2
fe@@ 2
發起 2
瓦@@ 2
多餘 2
才去 2
爐 2
家具 2
睡 2
劃 2
變形 2
騰出 2
收起 2
私 2
3000 2
1500 2
大多 2
大門 2
否 2
看過 2
Zagat 2
評分 2
一目了然 2
緬因州 2
海邊 2
遮住 2
紋@@ 2
寶 2
迷上 2
考古學 2
都由 2
古城 2
觀測 2
紅外線 2
東部 2
古代 2
地表 2
早就 2
莫 2
廣 2
東面 2
地底 2
漫@@ 2
有如 2
總@@ 2
繪@@ 2
厚@@ 2
五米 2
陶@@ 2
瑪@@ 2
露出 2
原貌 2
經費 2
萌芽 2
貝@@ 2
幾次 2
或多或少 2
浮油 2
折磨 2
浸 2
梘 2
8.1 2
7.@@ 2
生得 2
參觀 2
本土 2
不可思議 2
海面 2
一模一樣 2
岸邊 2
混@@ 2
數以千計 2
膠 2
玩水 2
一排 2
開工 2
憤怒 2
眾@@ 2
潛水艇 2
海浪 2
隱藏 2
泄@@ 2
極力 2
隱瞞 2
海龜 2
鰓 2
游去 2
威@@ 2
休閒 2
取消 2
拎 2
逃@@ 2
夭@@ 2
聚居 2
大西洋 2
同等 2
五月 2
鷸 2
趾 2
北半球 2
炸 2
水域 2
右邊 2
沉 2
寸 2
油管 2
鳥@@ 2
雀@@ 2
誹謗 2
淺 2
標誌 2
壞人 2
炒 2
違反 2
規定 2
復 2
格拉 2
衰退 2
耐@@ 2
緩@@ 2
口頭 2
鯨魚 2
鑽 2
起火 2
採光 2
啞 2
網@@ 2
依據 2
對話 2
按@@ 2
鍵盤 2
TV 2
MP@@ 2
這樣@@ 2
震@@ 2
欲@@ 2
引爆 2
掘 2
峰 2
印@@ 2
隕石 2
猶 2
兩百 2
坑@@ 2
像@@ 2
連續 2
英尺 2
小塊 2
頭上 2
飛來 2
亞利桑@@ 2
炸開 2
水牛 2
損傷 2
1908 2
利亞 2
地面上 2
嚇@@ 2
星星 2
望遠鏡 2
剛好 2
擦@@ 2
身而@@ 2
撞入 2
嘣 2
就打 2
難度 2
迎@@ 2
B612 2
基@@ 2
王子 2
曾是 2
登陸 2
拉動 2
有錢人 2
領先 2
塵@@ 2
祖國 2
行走 2
簿 2
不為 2
外國人 2
染@@ 2
尼龍 2
上課 2
師生 2
糧 2
本份 2
漫長 2
一堂 2
教師 2
原諒 2
提升到 2
堅@@ 2
再好 2
休 2
高齡 2
定會 2
該@@ 2
默默 2
盡力 2
煮食 2
逃避 2
促成 2
聽得 2
尖端 2
中風 2
奶 2
碳水化合物 2
必需 2
見@@ 2
紅蘿蔔 2
傀儡 2
穀 2
實情 2
澱粉質 2
善待 2
誤會 2
排成 2
個@@ 2
食用 2
慈悲 2
轉移 2
辭@@ 2
精英 2
妙@@ 2
廚@@ 2
連@@ 2
茱 2
提倡 2
他@@ 2
夾心 2
醬 2
金魚 2
出產 2
新鮮 2
農地 2
郊 2
賣@@ 2
婦 2
飼養 2
回事 2
妙 2
牛隻 2
況@@ 2
湯 2
煮@@ 2
烤@@ 2
襯 2
有害 2
取而代之 2
穀類 2
原料 2
晚餐 2
微波爐 2
狼@@ 2
三文 2
包住 2
公義 2
七成 2
陸地 2
間接 2
偏 2
著想 2
起作用 2
編寫 2
有機@@ 2
燒杯 2
試管 2
容器 2
用具 2
搜@@ 2
尋@@ 2
構想 2
下載 2
診斷 2
料@@ 2
庫 2
隨時隨地 2
轉換器 2
ty 2
陸@@ 2
嫁 2
靈長類 2
地質學 2
幾萬 2
三億 2
搖曳 2
包裹 2
七種 2
網架 2
個別 2
好笑 2
織 2
成千 2
點鐘 2
螺旋 2
梨 2
串 2
丝 2
式@@ 2
簡寫 2
圖案 2
AA@@ 2
GG@@ 2
量@@ 2
壓逼 2
鞭@@ 2
原先 2
具@@ 2
越高 2
箭 2
絡 2
白色 2
潜@@ 2
韌度 2
彈@@ 2
冑 2
可用 2
夏 2
小节 2
随身携带 2
随便 2
轻而易举 2
哒 2
长@@ 2
许@@ 2
边@@ 2
气泡 2
叠 2
135 2
拓展 2
限度 2
不做 2
共和國 2
西歐 2
築 2
落後 2
低價 2
薩 2
瑟 2
牌子 2
萬歲 2
印有 2
絲@@ 2
購買 2
雄心勃勃 2
同胞 2
置信 2
多年未见 2
熟人 2
崇敬 2
身体 2
词汇 2
无数 2
究竟是 2
流感 2
高血壓 2
極低 2
極高 2
死於 2
關鍵時刻 2
昂貴 2
癡肥 2
94 2
96 2
麥當勞 2
百事 2
諮詢 2
董事會 2
成果 2
款@@ 2
三分 2
改良 2
疾 2
內在 2
崩@@ 2
肢體 2
蟲@@ 2
Ａ 2
传输 2
祖父 2
走入 2
鋼筋水泥 2
一億 2
物料 2
鋼筋 2
鋼材 2
對策 2
封存 2
幼 2
2X4 2
規@@ 2
震 2
燒起 2
大塊 2
火勢 2
防火 2
斬 2
伐木 2
困擾 2
週期 2
4,@@ 2
摩@@ 2
心態 2
澳洲 2
十一 2
閉門造車 2
燈飾 2
自立 2
出色 2
常常 2
會在 2
珍惜 2
走出 2
ste@@ 2
改成 2
之地 2
車道 2
槍擊 2
籬 2
鄰@@ 2
買@@ 2
又@@ 2
打理 2
笪 2
癢 2
Steve 2
Lopez 2
綠地 2
簽名 2
人為 2
花草樹木 2
塗鴉 2
美化 2
園藝 2
點半 2
難受 2
流浪漢 2
甘藍菜 2
身處 2
困@@ 2
接掌 2
喬治 2
一大片 2
街坊 2
貨@@ 2
咖啡@@ 2
體會 2
農 2
圃 2
園丁 2
開會 2
不像 2
会话 2
报告 2
追随 2
热情 2
開玩笑 2
是啥 2
出口 2
才可以 2
元兇 2
閉@@ 2
排球 2
這對 2
僚 2
駕駛員 2
應該是 2
DOD@@ 2
老天 2
贏的 2
廢品 2
亮 2
怪物 2
簡略 2
綽@@ 2
餘 2
售價 2
重申 2
女生 2
異味 2
才有 2
查@@ 2
推 2
馬力 2
髮型 2
臨@@ 2
終 2
遺言 2
壽 2
輩子 2
十年前 2
四處 2
寫的 2
外邊 2
怪@@ 2
呼@@ 2
喚 2
何時 2
從一 2
謹記 2
每小時 2
小便 2
展@@ 2
明年 2
攻@@ 2
髮 2
笑@@ 2
一睹 2
眼紅 2
不動 2
陪伴 2
家教 2
激 2
干 2
一律 2
不復 2
則@@ 2
言之 2
壞話 2
相處 2
嚴 2
擅長 2
在做 2
w.@@ 2
怎麼回事 2
又要 2
攻打 2
拿來 2
廢 2
禮 2
主持人 2
希 2
很喜歡 2
福特 2
串@@ 2
展現 2
首歌 2
CD 2
墜下 2
墜落 2
忍者 2
一把 2
顛@@ 2
窒息 2
將來會 2
擺脫 2
說出來 2
哇哇 2
透@@ 2
來了 2
乎@@ 2
陰@@ 2
刀 2
子@@ 2
戰勝 2
嫖 2
榮幸 2
波及 2
真面目 2
戴上 2
下流 2
迷@@ 2
不算 2
這兒 2
住口 2
沈沈 2
當真 2
戴@@ 2
瘋@@ 2
兩難 2
打敗 2
終極 2
守衛 2
備 2
不公平 2
誰@@ 2
饒舌歌 2
終結 2
牠 2
世界中 2
線上 2
塗 2
胸部 2
裂 2
巴掌 2
魂 2
彎 2
恐怕 2
一只 2
笑話 2
榮 2
被迫 2
傻蛋 2
吹倒 2
錯了 2
結尾 2
困在 2
登場 2
剛剛 2
DIY 2
融合 2
博士學位 2
壞了 2
修復 2
並在 2
原創 2
藉由 2
看見 2
曾在 2
眼裡 2
鐵鍬 2
不應該 2
脫衣服 2
穿@@ 2
吸血鬼 2
@ 2
# 2
嘴巴 2
閉 2
勒 2
pp@@ 2
got 2
questions 2
artic@@ 2
like 2
wr@@ 2
help 2
I'm 2
guide 2
below 2
star@@ 2
est@@ 2
that 2
we 2
hav@@ 2
eb@@ 2
ly 2
ll 2
documentation 2
cour@@ 2
w 2
works 2
ug@@ 2
Whenever 2
铁 2
电力 2
参@@ 2
经典 2
牛顿 2
边界 2
两极 2
惯例 2
一端 2
符号 2
迷惑 2
区分 2
非要 2
电场 2
向外 2
模糊 2
单元 2
航 2
而来 2
示@@ 2
罗马 2
亞@@ 2
吩咐 2
新奇 2
總算 2
牙周病 2
流膿 2
會由 2
糊@@ 2
的確@@ 2
列入 2
起源於 2
括 2
三歲 2
幻燈片 2
與否 2
詳盡 2
串連 2
奢侈品 2
標示 2
牽涉 2
路面 2
油門 2
又再 2
製藥 2
想出 2
Cap'n 2
Crunch 2
早餐 2
雜誌社 2
四頁 2
無盡 2
區分 2
況 2
詳@@ 2
兩件 2
洞@@ 2
缺失 2
特異性 2
抗原 2
患有 2
兩間 2
動機 2
保險 2
尺 2
取@@ 2
醫學界 2
身在 2
驶 2
测试 2
将使 2
特寫 2
rolling 2
滾動 2
Se@@ 2
一閃 2
亮@@ 2
怎麼辦 2
頻道 2
我嗎 2
傳到 2
贏家 2
ony 2
還要 2
渴求 2
照片 2
挖@@ 2
明天 2
生於 2
友@@ 2
逃跑 2
過活 2
砍@@ 2
鎮@@ 2
自保 2
好幾 2
封面 2
寧願 2
想念 2
心中 2
竭盡所能 2
股 2
不多 2
從來沒有 2
星際大戰 2
幼@@ 2
兵 2
毀@@ 2
少數 2
訴 2
危害 2
下手 2
繩之以法 2
下定決心 2
盲@@ 2
民主黨 2
共和黨 2
布希 2
盡可能 2
並將 2
家鄉 2
插@@ 2
警 2
奮戰 2
確切 2
逐一 2
會見 2
議@@ 2
打个 2
除法 2
1，2，@@ 2
3，@@ 2
每份 2
想用 2
阴@@ 2
思维 2
复制 2
没用 2
什么时候 2
史@@ 2
一門 2
om@@ 2
etry 2
對邊 2
幾何 2
學過 2
判別 2
SI@@ 2
cah 2
toa 2
看不@@ 2
40,000 2
Pictur@@ 2
态 2
耗@@ 2
资 2
谢@@ 2
人才 2
学会 2
物种 2
凡 2
治疗 2
由一 2
滑@@ 2
講述 2
連結 2
原生代 2
一回事 2
熟識 2
Co@@ 2
Gi@@ 2
年初 2
彭 2
愛沙尼亞 2
一年@@ 2
數人 2
青年 2
伸 2
時會 2
課室 2
拆 2
推論 2
地址 2
寫上 2
紐@@ 2
一世 2
奸 2
人性 2
深處 2
無數 2
無聲 2
嚴@@ 2
簽 2
團@@ 2
圓 2
結局 2
Cam@@ 2
善意 2
感人 2
大病 2
四歲 2
跨@@ 2
♫ 2
磨@@ 2
素@@ 2
评估 2
真理 2
经济 2
以致 2
潜力 2
依存性 2
若@@ 2
letitripple.org 2
幻@@ 2
克萊 2
念@@ 2
偉 2
1950 2
球員 2
知名 2
新幾內亞 2
笑得 2
鉛筆 2
菌 2
壓@@ 2
腦部 2
25000 2
荷爾蒙 2
能幹 2
 2
膥 2
猧 2
 2
ㄤ 2
龟 2
 2
瞶 2
い 2
Τ 2
ǎ 2
ㄢ 2
ノ 2
穦 2
礛 2
泊 2
纐 2
猭 2
璶 2
⊿ 2
Τγ 2
琕 2
р 2
 2
 2
莱 2
赣 2
繦 2
瓄 2
腑 2
 2
螟 2
鞋带 2
识 2
轉動 2
對齊 2
來過 2
繞@@ 2
複 2
帶出 2
拍子 2
搖滾 2
吉@@ 2
錄音 2
Pink 2
Floyd 2
复@@ 2
谓 2
壹 2
無名 2
疑惑 2
請問 2
十六 2
一號 2
一分錢 2
俗@@ 2
絕望 2
不應 2
0.081 2
代入 2
体积 2
22.4 2
0.004375 2
18.@@ 2
物质 2
H2O 2
憧憬 2
不斷地 2
喜 2
貪@@ 2
累 2
常聽到 2
竊@@ 2
愛惜 2
床上 2
奄@@ 2
腐蝕 2
液體 2
沉默 2
匿跡 2
資格 2
廢物 2
寧 2
暴 2
一扇 2
貪婪 2
腐@@ 2
臭 2
巨石 2
暢@@ 2
灌@@ 2
地震 2
離去 2
新奧爾良 2
祈@@ 2
早晨 2
蜂蜜 2
甘@@ 2
光頭 2
一體 2
為之 2
橄欖球 2
成型 2
受損 2
宴 2
539 2
200@@ 2
神器 2
帶回 2
褻瀆 2
氛 2
卒 2
統治者 2
頒@@ 2
誇飾 2
掩@@ 2
飾 2
寫出來 2
重回 2
鎮壓 2
祭@@ 2
法令 2
猶太 2
' 2
子民 2
兩份 2
霸@@ 2
版@@ 2
政令 2
典範 2
橫跨 2
之久 2
希臘 2
亞歷山大 2
推崇 2
頹 2
1879 2
信奉 2
神蹟 2
克@@ 2
看法 2
功勞 2
搞得 2
熱烈 2
並列 2
晚期 2
借出 2
1979 2
基督教徒 2
祆教徒 2
借 2
涵 2
家園 2
席@@ 2
辯論會 2
對外 2
役 2
振@@ 2
奮@@ 2
慶 2
盛會 2
存放 2
聯合國 2
秋@@ 2
身影 2
激烈 2
隔@@ 2
夹角 2
要么 2
总之 2
坦白说 2
强 2
粗 2
矩 2
bsinθ 2
证@@ 2
引入 2
枪 2
地質學家 2
裂縫 2
淹 2
遺骸 2
有機物 2
1990 2
因而 2
Hubbert 2
陷入 2
扭轉 2
攀升 2
逆轉 2
沙特阿拉伯 2
補充 2
被逼 2
充裕 2
環球 2
三分之二 2
入口 2
哥@@ 2
energy 2
換取 2
焦油 2
砂 2
2040 2
誤導 2
破@@ 2
2030 2
裂@@ 2
鈾 2
核能 2
反應堆 2
可靠 2
局限於 2
潮汐 2
傳送 2
渦@@ 2
輪 2
效益 2
2020 2
電量 2
截至 2
輸送 2
十二 2
.5 2
2.5 2
十一點 2
增加到 2
容納 2
總數 2
擴充 2
氮 2
氧@@ 2
薄 2
一粒 2
橫 2
養活 2
1,500 2
下跌 2
津@@ 2
千年 2
累積 2
銹 2
UG 2
Gre@@ 2
au@@ 2
承載 2
永久 2
飢餓 2
貨品 2
十九 2
經濟學家 2
Stanley 2
催化 2
碟 2
於@@ 2
最主要 2
負面 2
絕 2
迎接 2
Romotive 2
八歲 2
隨身攜帶 2
轉過 2
tor@@ 2
碌 2
Scott 2
通訊 2
孫女 2
主人 2
敏捷 2
尚未 2
傾向 2
口語 2
線索 2
大約@@ 2
西邊 2
朔 2
很難 2
表@@ 2
十隻 2
河邊 2
但@@ 2
不全 2
有力 2
太早 2
一定能 2
最深 2
貢獻 2
隱@@ 2
驻@@ 2
自从 2
战@@ 2
争 2
绝望 2
轻 2
换句话说 2
承诺 2
掌权 2
退一步 2
绝不 2
犯@@ 2
当权 2
打击 2
归@@ 2
轻轻 2
贝@@ 2
幸运 2
暗 2
角落 2
资金 2
1250 2
指挥 2
Haji 2
Malem 2
Mohsin 2
Kamenj 2
这位 2
射杀 2
那位 2
崛起 2
七年 2
Semple 2
线@@ 2
stein 2
小组 2
David 2
外交部 2
Chr@@ 2
秘@@ 2
不成 2
医@@ 2
议 2
白白 2
惧 2
前景 2
渠道 2
决@@ 2
军人 2
个@@ 2
十二@@ 2
保镖 2
乐观 2
谦逊 2
简直 2
回归 2
批评 2
顿 2
势 2
担@@ 2
照顾 2
而定 2
导 2
挑@@ 2
思议 2
不可避免 2
陷 2
决议 2
换@@ 2
與生俱來 2
初生 2
規律 2
外界 2
白人 2
巴@@ 2
就讀 2
掌@@ 2
異類 2
舞@@ 2
燥 2
申請 2
厭@@ 2
價值觀 2
永@@ 2
僅僅 2
忘@@ 2
暫停 2
檔 2
羞愧 2
源@@ 2
蔓延 2
省 2
空虛 2
話@@ 2
濕度 2
滲@@ 2
釋出 2
綿羊 2
夫@@ 2
土@@ 2
野生動物 2
生態@@ 2
索@@ 2
國家公園 2
枯枝 2
落葉 2
季節 2
狩獵 2
遷徙 2
典型 2
八個 2
腐爛 2
復原 2
侵蝕 2
冧 2
洲@@ 2
受苦 2
改編 2
平靜 2
樹上 2
顯 2
暫時 2
看起來 2
一齣 2
十位 2
百位 2
情人 2
盜 2
禾 2
道@@ 2
照射 2
足部 2
握手 2
抑或 2
散@@ 2
North 2
眼球 2
虛@@ 2
哥倫比亞 2
立體 2
邦 2
行使 2
薩姆 2
寒@@ 2
一通 2
交通@@ 2
1975 2
宣揚 2
棕櫚 2
雅@@ 2
賈 2
拜倫 2
經由 2
布朗 2
語言學 2
研究院 2
Anderson 2
Push 2
Pop 2
Press 2
縮@@ 2
音效 2
風車 2
麥克 2
攬 2
交互 2
剩餘 2
平息 2
克里 2
出版社 2
same 2
subtitle 2
chinese 2
哥伦比亚 2
拜@@ 2
遗 2
费用 2
偿 2
阶@@ 2
进一步 2
传统 2
逐渐 2
年轻 2
计划 2
401k 2
金钱 2
富裕 2
背后 2
隐藏 2
期间 2
赤字 2
当初 2
投资 2
相对 2
复习 2
某种 2
饭 2
0,1,2,3,4,5,6,7 2
起点 2
我能 2
数值 2
总数 2
某@@ 2
吃掉 2
几@@ 2
條款 2
暈 2
淺顯 2
律@@ 2
62 2
隱晦 2
誠@@ 2
IBM 2
稅@@ 2
國稅局 2
通知 2
引進 2
白血病 2
救得 2
110 2
38@@ 2
宗 2
名單 2
器官 2
大腦皮質 2
搞清楚 2
玩笑 2
聯結 2
線路 2
丁 2
阿茲海默症 2
精神分裂症 2
Ra@@ 2
臨界點 2
只要有 2
提示 2
高估 2
容積 2
巴斯 2
牛頓 2
會是 2
就應該 2
呈 2
v1 2
尼斯 2
练 2
甜点 2
一道 2
鼓槌 2
弹 2
音色 2
连续 2
放慢 2
运用 2
马厩 2
耶稣 2
妈妈 2
东方 2
无罪 2
违背 2
公义 2
圣@@ 2
地狱 2
圣子 2
为人 2
承担 2
关 2
措施 2
230 2
寫過 2
成家 2
午飯 2
统计 2
恥 2
沉迷于 2
口號 2
膽@@ 2
曲@@ 2
精餾 2
99@@ 2
蘇格蘭 2
體育館 2
八萬 2
蔥 2
徹@@ 2
圈@@ 2
她們 2
與眾不同 2
甜美 2
評 2
委 2
自稱 2
紅十字 2
商會 2
憤 2
瀏覽 2
為數 2
供養 2
長輩 2
73 2
畢業生 2
蟻 2
返鄉 2
系數 2
逐 2
腐敗 2
譴責 2
熱門 2
不滿 2
精 2
千人 2
寶馬 2
大會 2
會議 2
Android 2
嗷@@ 2
謝謝@@ 2
時光 2
飢荒 2
挖 2
長者 2
德里 2
僻 2
聖雄 2
甘地 2
合同 2
村民 2
長老 2
曬@@ 2
烹調 2
器具 2
識字 2
拋@@ 2
全靠 2
十二歲 2
就做 2
零下 2
都去 2
塞拉利昂 2
副总统 2
政党 2
53 2
议会 2
罗德岛 2
也没有 2
对手 2
划分 2
全区 2
内的 2
约翰 2
选出 2
裤 2
怀俄明州 2
阵营 2
图@@ 2
W 2
拜访 2
痛心 2
概 2
隂 2
short 2
長遠 2
自封 2
創造力 2
保加利亚 2
適應 2
老闆 2
擺明 2
噏 2
革 2
醒目 2
家鼠 2
熊 2
延续 2
少年 2
内心 2
玩樂 2
歌曲 2
輕浮 2
滑雪 2
快遞 2
Sciant 2
占有 2
1,000 2
人類學家 2
延伸 2
輕易 2
防線 2
口袋 2
隨身 2
不受 2
恭喜 2
顧客 2
變過 2
九月份 2
插秧 2
比爾蓋茨 2
太遲 2
得上 2
年級 2
手法 2
後悔 2
引領 2
Harlem 2
毅力 2
四國 2
China 2
監察 2
Chinanet 2
2.0 2
巴拉 2
突尼西亞 2
一股 2
當局 2
殘 2
司@@ 2
皇帝 2
愈來愈 2
領導人 2
順 2
真人真事 2
弯曲 2
肋 2
不管怎么 2
谢 2
宾 2
表格 2
说不定 2
Pyonganbukdo 2
Julsangun 2
Sahae 2
戀愛 2
營火 2
詩歌 2
晚@@ 2
蓆 2
佔有 2
痴迷 2
而生 2
餓 2
車隊 2
犁 2
雌 2
月經 2
電路 2
性交 2
深厚 2
雙胞胎 2
魔力 2
人力車 2
水肺 2
水底 2
揭開 2
覺@@ 2
六分之一 2
医 2
先进 2
绘图 2
脑部 2
团@@ 2
发作 2
诊 2
策@@ 2
室外 2
眼神 2
帆布袋 2
長褲 2
蠱 2
一月 2
棟 2
抬頭 2
polo 2
好重 2
精子 2
受精 2
胚胎 2
腕 2
雌雄同體 2
震惊 2
人权 2
沉浸于 2
下午 2
结婚 2
紧张 2
Ticketmaster 2
縱有 2
隆 2
基督徒 2
最為 2
Severin 2
Java 2
極小 2
缺少 2
僱@@ 2
學得 2
顶 2
2ad 2
扔下去 2
约 2
大概是 2
167 2
1845 2
馬車 2
Ron 2
Esquire 2
bi@@ 2
規條 2
右 1
惕 1
繩@@ 1
撲@@ 1
拳@@ 1
喉 1
亳 1
湧@@ 1
孟@@ 1
災@@ 1
湖@@ 1
弓 1
腫 1
釘 1
乒@@ 1
乓 1
臍@@ 1
疤@@ 1
逢@@ 1
凶@@ 1
应@@ 1
录 1
聊 1
ber@@ 1
户 1
栏 1
着@@ 1
义@@ 1
愿 1
目前@@ 1
访 1
旧@@ 1
湾 1
陈@@ 1
劲 1
显@@ 1
亚 1
線@@ 1
靈@@ 1
賦@@ 1
厲@@ 1
泰@@ 1
範 1
站@@ 1
笨@@ 1
擁 1
飄@@ 1
咬@@ 1
誤@@ 1
問@@ 1
崇 1
Bre@@ 1
hn 1
ul@@ 1
ler 1
遷 1
FI@@ 1
貿@@ 1
普@@ 1
汗@@ 1
捲@@ 1
祥 1
潮@@ 1
濕 1
背@@ 1
脊 1
色@@ 1
綠 1
畏 1
熔@@ 1
睹 1
lo@@ 1
atch 1
ss 1
out 1
doc@@ 1
off 1
that@@ 1
the@@ 1
you@@ 1
tube 1
rin@@ 1
ru@@ 1
Z@@ 1
son 1
mou@@ 1
ch 1
thr@@ 1
ne@@ 1
arm@@ 1
ress 1
擰@@ 1
號@@ 1
戶@@ 1
廁 1
叔@@ 1
叔 1
嬸@@ 1
嬸 1
謦 1
綜 1
捱@@ 1
瀟 1
遙 1
乞@@ 1
酌@@ 1
enc@@ 1
餵@@ 1
陪 1
wor@@ 1
電視@@ 1
壟@@ 1
sen@@ 1
燉 1
羨@@ 1
矢@@ 1
凍@@ 1
卦 1
燥@@ 1
歲@@ 1
曰 1
邉 1
貪 1
眠@@ 1
汽@@ 1
占@@ 1
领 1
梦 1
队@@ 1
伍 1
亿@@ 1
翁 1
辈@@ 1
机@@ 1
Rom@@ 1
铅@@ 1
励 1
棍@@ 1
钉 1
灵@@ 1
币 1
仪 1
该@@ 1
寡@@ 1
兴趣 1
语@@ 1
辅@@ 1
册 1
筹 1
办 1
愿@@ 1
帕@@ 1
乌@@ 1
庆@@ 1
蘭@@ 1
遑@@ 1
租 1
Kam@@ 1
撤@@ 1
尤@@ 1
騰@@ 1
斑 1
娃@@ 1
撇 1
vi@@ 1
昔@@ 1
窩 1
綫 1
棄@@ 1
枕@@ 1
驅 1
給@@ 1
拋 1
拓 1
墮@@ 1
証@@ 1
簽@@ 1
善@@ 1
駒 1
優@@ 1
貨 1
乖 1
祁 1
呻 1
紗 1
眷@@ 1
鼾@@ 1
醉 1
ena 1
斷@@ 1
癖@@ 1
腩 1
災 1
摟 1
燦@@ 1
ank 1
ull@@ 1
ese 1
詛@@ 1
吻 1
贊@@ 1
鑒 1
詢 1
怖@@ 1
儘@@ 1
誼 1
昆 1
墻 1
識@@ 1
倫@@ 1
笛@@ 1
鉴@@ 1
与@@ 1
检@@ 1
确 1
绕 1
镜@@ 1
点@@ 1
溴@@ 1
术@@ 1
稍@@ 1
转@@ 1
轴 1
谈@@ 1
凑 1
纲 1
适@@ 1
霍 1
瘍 1
疑@@ 1
扣 1
拒 1
胰@@ 1
兇@@ 1
茶@@ 1
隱 1
性病 1
訊@@ 1
謙@@ 1
虛 1
酶 1
卸@@ 1
懲@@ 1
疚 1
蔑@@ 1
梯@@ 1
产@@ 1
遍@@ 1
维@@ 1
运@@ 1
邮@@ 1
环@@ 1
备@@ 1
储 1
盘 1
轧@@ 1
泵 1
街@@ 1
荣@@ 1
晤 1
蝴@@ 1
诞@@ 1
倦 1
扉 1
滋 1
润 1
脱@@ 1
矿 1
丝@@ 1
灭@@ 1
顾@@ 1
报@@ 1
闻 1
授 1
框@@ 1
评@@ 1
垫@@ 1
顶@@ 1
余@@ 1
SA 1
遞@@ 1
gra@@ 1
險@@ 1
掟 1
掃@@ 1
歹@@ 1
8m@@ 1
攝影@@ 1
輯 1
扛 1
耶@@ 1
穌 1
禦 1
扣@@ 1
份@@ 1
送@@ 1
販@@ 1
旅@@ 1
飢@@ 1
渴 1
綠@@ 1
樓@@ 1
橋@@ 1
樑 1
叛@@ 1
乙@@ 1
候 1
ome@@ 1
by@@ 1
敲 1
Py@@ 1
读@@ 1
辟 1
译 1
娱 1
骄@@ 1
傲 1
帐 1
庆 1
雑 1
謂@@ 1
吾 1
互作用 1
川 1
RT 1
橄@@ 1
欖 1
誡 1
剃@@ 1
欽 1
皮@@ 1
膚@@ 1
拔 1
飲@@ 1
ED 1
擅@@ 1
瓜@@ 1
ad 1
謀@@ 1
托 1
混 1
扭 1
繃@@ 1
紮 1
紫 1
屍@@ 1
僵@@ 1
痹 1
腕@@ 1
肘@@ 1
灼 1
牆@@ 1
糙 1
亢@@ 1
奮 1
灘 1
統@@ 1
齊@@ 1
與@@ 1
狹@@ 1
抵 1
竭盡@@ 1
研究@@ 1
烧 1
刚@@ 1
西亞 1
考察 1
乘@@ 1
樹@@ 1
聘@@ 1
許@@ 1
環@@ 1
斜@@ 1
坡 1
安全@@ 1
诺 1
飓@@ 1
压@@ 1
奏@@ 1
卫@@ 1
汇@@ 1
韧@@ 1
涨@@ 1
温 1
腻 1
损 1
蓝 1
厅 1
视@@ 1
觉 1
矮 1
焦 1
敵 1
纏@@ 1
恍@@ 1
忘 1
枝 1
唇 1
籌 1
㩒 1
測@@ 1
碰@@ 1
围 1
东@@ 1
rain@@ 1
th 1
mo@@ 1
词@@ 1
顺 1
补 1
tur@@ 1
选@@ 1
侦@@ 1
ener@@ 1
ation 1
减@@ 1
规 1
摆@@ 1
庭@@ 1
属@@ 1
凑@@ 1
嘍 1
廁@@ 1
嘟 1
澆 1
沖 1
煉@@ 1
澱 1
茸@@ 1
茸 1
瑣@@ 1
豫 1
屜 1
俐@@ 1
癱@@ 1
瘓 1
丟@@ 1
誅@@ 1
慧@@ 1
國家@@ 1
寧@@ 1
注意@@ 1
俄@@ 1
sin@@ 1
搓 1
柢@@ 1
莓 1
８ 1
６ 1
癒 1
玻@@ 1
璃 1
mast@@ 1
舒@@ 1
刹@@ 1
ive 1
氹 1
盜@@ 1
側@@ 1
衣 1
賦 1
恒@@ 1
压 1
凭 1
闲 1
鸡@@ 1
蹦 1
跳@@ 1
组@@ 1
浅@@ 1
层@@ 1
spon@@ 1
飘 1
宏@@ 1
祸 1
辆@@ 1
轮@@ 1
较@@ 1
亲 1
俺 1
够@@ 1
凭@@ 1
捏@@ 1
严@@ 1
谨 1
的@@ 1
Δ@@ 1
探 1
晴@@ 1
妝@@ 1
烹@@ 1
飪 1
憾 1
庸 1
任@@ 1
設@@ 1
荷@@ 1
撮 1
丁@@ 1
肩@@ 1
囡 1
冋 1
軟 1
剄 1
慢@@ 1
戲 1
崎@@ 1
嶇 1
ST 1
Har@@ 1
鏡@@ 1
積@@ 1
繼@@ 1
50000 1
第二@@ 1
耍@@ 1
板@@ 1
卓 1
陋 1
蓬 1
緬@@ 1
禱@@ 1
隻@@ 1
療@@ 1
泣 1
緊@@ 1
擔 1
ook 1
職@@ 1
wn 1
躲@@ 1
遵@@ 1
同體 1
繪 1
照@@ 1
恩@@ 1
挫@@ 1
懼 1
擁@@ 1
慰@@ 1
仁@@ 1
慈 1
sep@@ 1
ea@@ 1
ah 1
ison 1
众 1
邮 1
讯 1
权@@ 1
滔@@ 1
滔 1
筛@@ 1
抒@@ 1
书@@ 1
籍 1
体@@ 1
广@@ 1
Pl@@ 1
Pau@@ 1
暂@@ 1
马@@ 1
椭@@ 1
ot 1
AR@@ 1
DI@@ 1
赞 1
奖 1
持@@ 1
之以@@ 1
越来@@ 1
勳@@ 1
爵 1
粉 1
礁 1
禍 1
洪 1
旱 1
豐 1
蟾@@ 1
蜍 1
壁@@ 1
蝨 1
戈@@ 1
苔@@ 1
究@@ 1
漠@@ 1
究 1
牟 1
權@@ 1
換@@ 1
淡@@ 1
耕@@ 1
鑿 1
炭 1
賠@@ 1
績 1
伙@@ 1
乾@@ 1
涸 1
烈 1
江 1
泛@@ 1
顧 1
P 1
披@@ 1
董事@@ 1
循 1
慶@@ 1
計師 1
鈔 1
慰 1
億@@ 1
拗 1
抉@@ 1
鮮@@ 1
豔 1
島@@ 1
ㄚ 1
鑰@@ 1
坐@@ 1
f 1
留下來 1
of@@ 1
雇 1
事實@@ 1
Ge@@ 1
ｄ 1
債@@ 1
宿@@ 1
討 1
決心 1
除@@ 1
瑣 1
惜 1
禪 1
堆@@ 1
枱 1
三角@@ 1
鮮 1
寬@@ 1
撈@@ 1
拱@@ 1
玉 1
瑙 1
蹟 1
介 1
殖 1
蠔 1
沿 1
下水 1
溝 1
游@@ 1
廉 1
夭 1
釣 1
鯨 1
晒@@ 1
候@@ 1
美洲 1
陵@@ 1
珍@@ 1
曠 1
荒@@ 1
唐 1
艇 1
潛 1
巢 1
魯@@ 1
莽 1
船@@ 1
駕 1
抄 1
坊@@ 1
襌 1
蹈 1
徹 1
潔@@ 1
聾@@ 1
ou 1
ube 1
子彈 1
聾 1
島 1
掘@@ 1
濺 1
攝@@ 1
校 1
羚@@ 1
釋@@ 1
屎 1
罕@@ 1
靠@@ 1
翁@@ 1
焉@@ 1
甚@@ 1
鵝@@ 1
絨 1
桃 1
惹 1
墓@@ 1
蓋@@ 1
茶 1
罕 1
廊 1
騎@@ 1
努 1
陀 1
恭@@ 1
佑 1
喀@@ 1
鴉@@ 1
套@@ 1
淚@@ 1
盈@@ 1
眶 1
亦@@ 1
朋@@ 1
嗡 1
際@@ 1
刮@@ 1
測 1
答@@ 1
F 1
曳 1
畜@@ 1
牧 1
占 1
蘿@@ 1
蔔@@ 1
丫 1
胃@@ 1
夠@@ 1
津 1
零@@ 1
鎖 1
肆 1
聞@@ 1
丸 1
註 1
誕@@ 1
佛@@ 1
唾@@ 1
蕃@@ 1
茄 1
菠@@ 1
煎 1
扒 1
胃 1
葯 1
健 1
另一@@ 1
撈 1
焗 1
蓉 1
廚 1
嬉@@ 1
餸 1
生產@@ 1
酪 1
棒@@ 1
燕@@ 1
嗚@@ 1
昏@@ 1
餵 1
吞@@ 1
虎@@ 1
嚥 1
叮@@ 1
味@@ 1
渠 1
薄@@ 1
飼@@ 1
飼 1
類@@ 1
固醇 1
卅 1
盟@@ 1
竅@@ 1
剪@@ 1
匣 1
劑@@ 1
Scot@@ 1
污@@ 1
惡 1
撲 1
悠@@ 1
尺@@ 1
猿@@ 1
旋@@ 1
剖 1
鞭 1
渦 1
葡@@ 1
萄 1
Q 1
熒@@ 1
蛋@@ 1
楷 1
獵 1
蛾 1
蠶 1
柔@@ 1
仿@@ 1
拘 1
22.@@ 1
蜂 1
窝 1
沙@@ 1
忠@@ 1
惑 1
捉@@ 1
绘 1
尔@@ 1
袭 1
审@@ 1
佳@@ 1
肴 1
鲜@@ 1
宁@@ 1
涅@@ 1
槃 1
价@@ 1
桩 1
卖 1
订@@ 1
货 1
宝@@ 1
肿@@ 1
iant 1
悲 1
af@@ 1
ew@@ 1
瘧@@ 1
雕@@ 1
mail 1
鳴 1
Ｄ@@ 1
Ｎ@@ 1
砍 1
樁 1
紅@@ 1
棲@@ 1
俬 1
慣@@ 1
備@@ 1
牢 1
𡀔@@ 1
芝@@ 1
扁 1
攜@@ 1
摯@@ 1
角@@ 1
尖 1
敞@@ 1
握 1
踏@@ 1
洗@@ 1
腎 1
癥@@ 1
央@@ 1
青@@ 1
栽@@ 1
碰 1
綴 1
飾@@ 1
斧@@ 1
朵 1
預 1
噱@@ 1
碗@@ 1
糕 1
嗚 1
蒼 1
蝙@@ 1
蝠@@ 1
俠 1
拾 1
暱@@ 1
凹@@ 1
OD@@ 1
坦白@@ 1
貝 1
仝 1
歉 1
狗@@ 1
閣@@ 1
暈@@ 1
眩 1
搶@@ 1
『 1
』 1
搗@@ 1
88 1
掰 1
撃 1
‧@@ 1
ER@@ 1
佐@@ 1
釆 1
抹@@ 1
淦 1
獃@@ 1
御 1
宅 1
擠 1
ww@@ 1
投@@ 1
靜@@ 1
揭@@ 1
幕@@ 1
典@@ 1
鬍@@ 1
宜@@ 1
拐@@ 1
爭@@ 1
尊@@ 1
伶@@ 1
俐 1
貞 1
胸@@ 1
怕@@ 1
饒 1
沾@@ 1
HI@@ 1
伙 1
愚@@ 1
腦@@ 1
竟@@ 1
騙@@ 1
什@@ 1
麼@@ 1
霹@@ 1
靂 1
效@@ 1
勞 1
到底@@ 1
彼@@ 1
幹@@ 1
ke 1
躲 1
姿 1
許是 1
傻@@ 1
繭 1
龐@@ 1
倆 1
逞 1
棚 1
哼 1
擾@@ 1
熬@@ 1
gy 1
模@@ 1
渡 1
析 1
茁@@ 1
磚@@ 1
佈 1
續@@ 1
晃 1
錯@@ 1
淹@@ 1
ㄇ 1
居@@ 1
褲@@ 1
thing 1
igh@@ 1
erson 1
re 1
ver@@ 1
ow 1
ks 1
次@@ 1
希@@ 1
腊 1
Magne@@ 1
液@@ 1
轴@@ 1
条@@ 1
乳 1
割 1
构@@ 1
踵 1
雾 1
笼@@ 1
罩 1
妥@@ 1
肥@@ 1
胖@@ 1
悶 1
剔@@ 1
牙@@ 1
談@@ 1
途@@ 1
您@@ 1
各樣 1
摘 1
貫@@ 1
雷@@ 1
宜 1
鬆@@ 1
些@@ 1
益@@ 1
茅 1
isa 1
art@@ 1
糊 1
曉 1
欄 1
覓 1
隙 1
悉 1
驗 1
瞭 1
腫@@ 1
幾歲 1
Di@@ 1
ost@@ 1
咫@@ 1
﹔ 1
NS 1
邻@@ 1
输@@ 1
举@@ 1
累@@ 1
喔@@ 1
檸@@ 1
檬 1
葡萄@@ 1
棉@@ 1
晶@@ 1
晶 1
陪@@ 1
不定 1
扇 1
pol@@ 1
恙 1
嘗@@ 1
滋@@ 1
sel@@ 1
簧@@ 1
頗@@ 1
牠@@ 1
鯊@@ 1
脖@@ 1
叢@@ 1
繳 1
履@@ 1
seph 1
v 1
唆@@ 1
父@@ 1
孩@@ 1
屢@@ 1
席 1
檢@@ 1
閥 1
刃@@ 1
確@@ 1
戮 1
不管@@ 1
諸@@ 1
逍@@ 1
府@@ 1
襲@@ 1
範@@ 1
畢@@ 1
氏@@ 1
CO@@ 1
帧 1
顺@@ 1
芯 1
数@@ 1
晦@@ 1
涩 1
艺 1
濒@@ 1
绝@@ 1
愤@@ 1
怒 1
咕@@ 1
噜 1
迈@@ 1
貼@@ 1
鼠 1
聴 1
demy 1
砌 1
戳@@ 1
蟋@@ 1
蟀 1
叫@@ 1
咀@@ 1
且@@ 1
程@@ 1
atch@@ 1
PostSecre@@ 1
磚 1
謹 1
屙 1
撕@@ 1
膝 1
跪 1
nd@@ 1
郵件 1
涌@@ 1
谅 1
鉴 1
2.@@ 1
宮@@ 1
胎@@ 1
生理@@ 1
族@@ 1
烏 1
柆 1
皺@@ 1
眉@@ 1
對面 1
偽@@ 1
神經@@ 1
祈 1
捍 1
愉 1
鎊 1
札 1
醇 1
腎@@ 1
腺@@ 1
╯ 1
澈 1
㎡ 1
 1
辰 1
 1
а 1
谋 1
τ@@ 1
 1
盾 1
ê@@ 1
狹 1
玭 1
畍 1
柑 1
 1
肈 1
 1
ㄆ 1
ず@@ 1
︱ 1
 1
祅 1
┛ 1
渤 1
粂 1
よ 1
硓 1
 1
贺 1
稬 1
М 1
禬 1
禫 1
砰 1
 1
㏑ 1
玻 1
搐 1
瞷 1
 1
 1
玡 1
 1
㏄ 1
娩 1
玝 1
 1
碙 1
 1
堵 1
癘 1
キ 1
㈱ 1
笿 1
琵 1
╆ 1
и@@ 1
Ν 1
 1
痷 1
㎝ 1
ō 1
竒 1
κ 1
驹 1
盢 1
瓁 1
 1
癸 1
癬 1
 1
パ 1
は 1
 1
羣 1
衆 1
悽@@ 1
贵 1
綁@@ 1
龙 1
迴@@ 1
鏢 1
礙@@ 1
僧@@ 1
侶 1
喉@@ 1
嚨 1
琴@@ 1
附@@ 1
虚@@ 1
赚@@ 1
话@@ 1
称@@ 1
纳@@ 1
闷 1
娱@@ 1
橡@@ 1
榆@@ 1
啵 1
谂 1
財 1
98m@@ 1
22.4@@ 1
0.0043@@ 1
久@@ 1
堪@@ 1
從來@@ 1
城@@ 1
執@@ 1
臺@@ 1
虐 1
騷@@ 1
潑 1
酸@@ 1
銷@@ 1
憎@@ 1
匹@@ 1
黯@@ 1
臼 1
掠@@ 1
鈳 1
玻璃@@ 1
封@@ 1
癥 1
蔓@@ 1
池 1
池@@ 1
塘 1
黏 1
冥 1
畔 1
柳@@ 1
蔭 1
武 1
叢 1
兜@@ 1
疤 1
膿@@ 1
盎@@ 1
膿 1
尿@@ 1
哀 1
嚎 1
玷@@ 1
灑 1
碗 1
麽 1
沖@@ 1
肆@@ 1
忌@@ 1
憚 1
謊@@ 1
面上 1
滴@@ 1
漠 1
妹@@ 1
肚@@ 1
酬 1
藹 1
芳@@ 1
膏 1
符@@ 1
榮@@ 1
耀 1
怒@@ 1
幽@@ 1
憤@@ 1
银@@ 1
业@@ 1
涵@@ 1
膾@@ 1
炙@@ 1
館 1
劫@@ 1
刮 1
秤 1
虧@@ 1
欠 1
征 1
兵@@ 1
朕 1
迴 1
壇 1
賜@@ 1
囑@@ 1
咐 1
殿@@ 1
宇 1
朽 1
仰@@ 1
君@@ 1
垣 1
蛛@@ 1
葉 1
授@@ 1
慷@@ 1
皆 1
佳 1
詮@@ 1
惶@@ 1
惶 1
純 1
百分@@ 1
旨@@ 1
荼@@ 1
虔@@ 1
館@@ 1
勇@@ 1
廬@@ 1
欺@@ 1
挺@@ 1
奴@@ 1
剝@@ 1
削 1
歡 1
憲@@ 1
弧@@ 1
拇指 1
屑 1
获@@ 1
θ 1
场@@ 1
括@@ 1
CA@@ 1
獻 1
堊@@ 1
紀 1
澱@@ 1
碳@@ 1
油@@ 1
蜆 1
理學家 1
R 1
彌@@ 1
瀝@@ 1
暖@@ 1
倚@@ 1
合物 1
電廠 1
秘 1
詇 1
硫@@ 1
壞@@ 1
褪 1
暫@@ 1
鈈 1
壩 1
限於 1
陸 1
柴@@ 1
發展@@ 1
沛 1
級@@ 1
債 1
繳@@ 1
氐 1
氧化@@ 1
臭@@ 1
棋@@ 1
08 1
大戰 1
漁@@ 1
氮@@ 1
奪@@ 1
鉀 1
鈣 1
鎂 1
旱@@ 1
鹽@@ 1
Nor@@ 1
生活@@ 1
需@@ 1
嘜 1
ons 1
稀@@ 1
蒙@@ 1
礦@@ 1
纖 1
器@@ 1
滅@@ 1
莊 1
踎 1
著@@ 1
攰 1
oc@@ 1
語@@ 1
祖 1
泉@@ 1
瀑@@ 1
尚@@ 1
須 1
葫@@ 1
蘆 1
蠻 1
搏@@ 1
鬥 1
秦 1
骨 1
um@@ 1
矩@@ 1
ice 1
ple 1
銘@@ 1
皇@@ 1
刻@@ 1
鑿@@ 1
齷 1
齰 1
悍 1
拳 1
耍 1
捷 1
怎@@ 1
么@@ 1
军@@ 1
剧 1
卢 1
第三@@ 1
第四@@ 1
招 1
杀@@ 1
签@@ 1
营 1
兹 1
给@@ 1
汉 1
靓 1
冲@@ 1
锋 1
兰@@ 1
败 1
伊斯@@ 1
赌 1
似@@ 1
满@@ 1
bert 1
农@@ 1
And@@ 1
ild@@ 1
197@@ 1
继@@ 1
id 1
ide 1
迈 1
欧@@ 1
乐@@ 1
挂@@ 1
勋@@ 1
异@@ 1
吓@@ 1
策 1
森@@ 1
严 1
辆 1
办@@ 1
怀@@ 1
融 1
万@@ 1
产 1
缩@@ 1
迟@@ 1
迟 1
谨@@ 1
慎 1
过@@ 1
贫@@ 1
忧 1
崩 1
向@@ 1
准 1
san@@ 1
扎 1
誉 1
叙@@ 1
达@@ 1
诚@@ 1
雛@@ 1
領@@ 1
郡 1
韦 1
五歲 1
孵@@ 1
爬 1
鈍 1
羽@@ 1
豐@@ 1
多樣@@ 1
劃@@ 1
尊 1
劍@@ 1
學位 1
醒@@ 1
國務@@ 1
卿 1
泉 1
鍛@@ 1
匯 1
潛@@ 1
炬 1
慌@@ 1
不在@@ 1
諾@@ 1
僮 1
坦 1
悔@@ 1
遷@@ 1
平方@@ 1
謂 1
負@@ 1
糞 1
聿 1
韋 1
降@@ 1
雨@@ 1
頸@@ 1
鹿 1
瘠 1
厘@@ 1
峽@@ 1
饑@@ 1
荒 1
瀕@@ 1
喝@@ 1
泽 1
世界@@ 1
趁 1
貢 1
賽@@ 1
椽 1
麵@@ 1
裙 1
犬 1
掉@@ 1
彰@@ 1
聰 1
勉@@ 1
逃 1
想看 1
攤 1
惱 1
臟 1
掏@@ 1
嘔 1
星@@ 1
熠@@ 1
熠 1
灼@@ 1
射@@ 1
脈@@ 1
喚@@ 1
襪 1
勃勃 1
酥 1
刊@@ 1
org@@ 1
註@@ 1
遇@@ 1
雄@@ 1
雌@@ 1
柯 1
烏@@ 1
雜 1
諸 1
艱@@ 1
砲@@ 1
損 1
佇@@ 1
架@@ 1
bor@@ 1
崔 1
徑@@ 1
濱 1
停車@@ 1
輛 1
只不@@ 1
汙@@ 1
喘 1
畝 1
露@@ 1
淵@@ 1
瓶@@ 1
抓@@ 1
錦@@ 1
添@@ 1
全書 1
輪@@ 1
享 1
揀@@ 1
出版@@ 1
温@@ 1
杰 1
琼 1
伦 1
删@@ 1
亲@@ 1
残@@ 1
误@@ 1
40@@ 1
启@@ 1
养 1
职@@ 1
壮 1
弱 1
锐@@ 1
萎@@ 1
缩 1
额@@ 1
拨@@ 1
券 1
财@@ 1
1,2,3,4,5,6,7 1
宽 1
乏@@ 1
盘@@ 1
箭@@ 1
间@@ 1
丢 1
烦@@ 1
专@@ 1
触@@ 1
习@@ 1
伍@@ 1
仗 1
一切@@ 1
簡 1
返@@ 1
璞@@ 1
閱 1
計@@ 1
仙 1
茂 1
額@@ 1
防 1
曆 1
拃 1
責@@ 1
旁@@ 1
貸 1
齡@@ 1
精神@@ 1
躁@@ 1
鬱 1
罹@@ 1
沿@@ 1
祕 1
梗@@ 1
ud@@ 1
pop@@ 1
妄@@ 1
心臟@@ 1
擠@@ 1
疲@@ 1
劳 1
优@@ 1
镲 1
练@@ 1
衷 1
奠@@ 1
2，@@ 1
婴@@ 1
镇 1
两@@ 1
约@@ 1
伊@@ 1
甸@@ 1
亚@@ 1
悖@@ 1
堕@@ 1
诅 1
敌 1
赐 1
位@@ 1
灵 1
尝 1
替@@ 1
暂 1
穷 1
肉@@ 1
惩 1
恶@@ 1
永 1
牺@@ 1
牲 1
妇 1
赎 1
觀@@ 1
售 1
蘿蔔 1
彌 1
漢 1
羅斯 1
凌 1
懶 1
駁 1
粹 1
釀@@ 1
歎 1
嘉@@ 1
販 1
闖 1
聘 1
詢@@ 1
允@@ 1
楊 1
瀾 1
奧@@ 1
年輕@@ 1
惹@@ 1
紅十@@ 1
者@@ 1
充 1
訪@@ 1
騰 1
薪 1
窄@@ 1
悭 1
夾 1
社@@ 1
膨@@ 1
漲 1
沮@@ 1
動性 1
焚 1
裸 1
捐@@ 1
捐 1
鐸 1
哈@@ 1
Mo@@ 1
哺 1
挺 1
貴@@ 1
外交@@ 1
鋪@@ 1
邁 1
緝@@ 1
嚮@@ 1
黎@@ 1
瞞@@ 1
碩@@ 1
羞@@ 1
婆 1
傅 1
奉@@ 1
鑑@@ 1
藍@@ 1
蕁@@ 1
孫 1
督 1
糾@@ 1
紛 1
告@@ 1
比亞 1
搖@@ 1
奔 1
媒 1
懶@@ 1
嘲@@ 1
连@@ 1
槛 1
阿拉@@ 1
华@@ 1
呐 1
劣@@ 1
肯 1
佩 1
吞 1
鲁 1
内@@ 1
乔@@ 1
俄 1
掀@@ 1
頽 1
墊@@ 1
OE@@ 1
謀 1
産 1
碾@@ 1
к@@ 1
а@@ 1
л 1
害@@ 1
抱@@ 1
揹 1
脚 1
剂 1
載@@ 1
专 1
淘@@ 1
汰 1
棄 1
徴 1
螞@@ 1
秩@@ 1
泯 1
唱@@ 1
闹 1
搏 1
杏@@ 1
裹@@ 1
滯 1
慚@@ 1
愧 1
灕 1
丑 1
唓 1
踢 1
緻 1
昇 1
爬@@ 1
79 1
53@@ 1
嘎@@ 1
陋@@ 1
束 1
盃 1
卑@@ 1
靈 1
品@@ 1
冲 1
涼 1
啰 1
促 1
uc@@ 1
狽 1
噻 1
嫐 1
台@@ 1
嘥 1
198@@ 1
綪 1
忽 1
炎 1
丈 1
皆@@ 1
耕 1
育@@ 1
蛀@@ 1
育 1
眨@@ 1
魄@@ 1
sia 1
coun@@ 1
敘@@ 1
ame 1
升@@ 1
優 1
稱@@ 1
唯@@ 1
刑 1
春 1
民@@ 1
蔽 1
刪@@ 1
駭 1
革@@ 1
粒@@ 1
囊@@ 1
博@@ 1
京 1
姚 1
胡 1
錦 1
濤 1
姓@@ 1
諺@@ 1
賄@@ 1
賂 1
輿@@ 1
熙 1
謠@@ 1
澤@@ 1
挫 1
侵 1
塔@@ 1
众@@ 1
恋 1
猜@@ 1
43@@ 1
骼 1
渊@@ 1
树 1
涂@@ 1
隐 1
盹@@ 1
祖@@ 1
叟 1
韻@@ 1
鍾@@ 1
漓@@ 1
竹@@ 1
稹 1
簟 1
衬 1
茵 1
昨 1
君 1
誇@@ 1
尼西亞 1
遞 1
侯 1
容@@ 1
序@@ 1
鑑 1
阿拉伯@@ 1
吠 1
略@@ 1
哄 1
痴 1
嗮 1
齡 1
髖 1
置@@ 1
員@@ 1
抑 1
篡@@ 1
亞馬@@ 1
遜@@ 1
檻 1
溪 1
姑@@ 1
娘 1
伕 1
巳 1
嵌@@ 1
盤@@ 1
终@@ 1
吹@@ 1
態@@ 1
斗@@ 1
篷 1
躍 1
歷 1
不可@@ 1
前所@@ 1
箇@@ 1
紮@@ 1
躯@@ 1
梦@@ 1
哲@@ 1
阅@@ 1
据 1
估@@ 1
½ 1
脏 1
错@@ 1
™ 1
电@@ 1
¾ 1
经有 1
认@@ 1
斋 1
药@@ 1
惊@@ 1
升到 1
伤@@ 1
闭 1
甫 1
号@@ 1
巾 1
冬 1
宗@@ 1
擴@@ 1
霓@@ 1
虹@@ 1
抬@@ 1
倉@@ 1
緋@@ 1
挨 1
月@@ 1
皎@@ 1
潔 1
蛤@@ 1
蜊 1
珊@@ 1
瑚 1
瞬@@ 1
漂@@ 1
膜 1
螺 1
蜇 1
苗 1
構@@ 1
衍 1
櫛 1
汪@@ 1
獵@@ 1
藏@@ 1
橈 1
膠@@ 1
圓@@ 1
呵@@ 1
孕 1
刺 1
谊 1
贸@@ 1
楼 1
离@@ 1
袭@@ 1
虐@@ 1
帮@@ 1
恢@@ 1
缆 1
经@@ 1
历@@ 1
辜 1
坷 1
宽@@ 1
恕 1
CAPTCHA 1
虎 1
檔@@ 1
葛 1
嚯 1
黃 1
撿 1
庞@@ 1
成千上@@ 1
隐@@ 1
帮 1
Sn@@ 1
噓 1
瓶 1
姓 1
嘔@@ 1
攔@@ 1
階 1
建@@ 1
set@@ 1
歧@@ 1
扔@@ 1
0m 1
兴@@ 1
坏@@ 1
荼 1
縣@@ 1
星期@@ 1
昧 1
㨂 1
訂 1
New@@ 1
須@@ 1
珍 1
編 1
大利 1
詩@@ 1
